<unk>	0
<s>	0
</s>	0
▁के	-3.51612
।	-3.68699
▁में	-3.80882
▁है	-3.92419
▁की	-4.01262
,	-4.08652
▁को	-4.26587
▁से	-4.32808
▁का	-4.51197
.	-4.54854
▁और	-4.55006
▁ने	-4.62822
▁पर	-4.74936
▁कि	-4.88823
▁हैं	-4.91279
▁	-4.98455
ी	-5.06825
▁भी	-5.11809
ों	-5.21075
▁एक	-5.31712
▁कर	-5.37818
▁इस	-5.38787
-	-5.39843
▁लिए	-5.40798
▁नहीं	-5.44334
ा	-5.54459
▁ही	-5.57526
न	-5.59696
▁हो	-5.6333
▁किया	-5.69376
▁तो	-5.76037
र	-5.79169
▁था	-5.79944
े	-5.83483
▁कहा	-5.85656
▁यह	-5.85938
▁गया	-5.879
ल	-5.90072
▁करने	-5.91083
क	-5.96468
▁साथ	-5.99059
म	-6.04933
▁बाद	-6.1132
स	-6.11478
ने	-6.21843
ता	-6.23777
▁दिया	-6.24099
▁रहे	-6.25407
▁जा	-6.25553
त	-6.25743
▁अपने	-6.25762
▁व	-6.29304
▁(	-6.29422
)	-6.30711
ना	-6.31044
▁हुए	-6.32173
▁तक	-6.33766
▁न	-6.35923
▁रहा	-6.36454
ं	-6.37356
▁थी	-6.38819
▁जो	-6.4127
▁रही	-6.41567
▁आ	-6.46359
▁उन्होंने	-6.47464
▁सरकार	-6.48026
▁लेकिन	-6.49577
▁थे	-6.50078
▁गई	-6.50221
▁वह	-6.55738
कर	-6.56603
▁कुछ	-6.60411
▁पहले	-6.62356
▁या	-6.63518
ट	-6.64173
द	-6.66635
▁होने	-6.68066
▁दी	-6.68759
ज	-6.68955
ो	-6.69165
▁भारत	-6.70245
▁लोगों	-6.71645
▁अब	-6.72013
ब	-6.72665
▁वाले	-6.72678
प	-6.73106
:	-6.75191
▁अ	-6.75309
▁ये	-6.75355
▁गए	-6.75403
▁कोई	-6.76121
▁करते	-6.7673
▁अपनी	-6.77379
▁पुलिस	-6.77485
ला	-6.77743
▁आप	-6.78109
▁इसके	-6.7864
व	-6.80392
▁बात	-6.81654
▁सिंह	-6.8223
▁.	-6.84442
▁किसी	-6.85185
ग	-6.86302
ड	-6.86531
▁साल	-6.87284
ते	-6.8735
्स	-6.92121
▁इन	-6.92381
▁दो	-6.93335
▁देश	-6.94764
▁बताया	-6.94893
▁जब	-6.94919
▁तरह	-6.95148
▁हुआ	-6.95162
ह	-6.95339
▁लेकर	-6.95666
▁आज	-6.96654
रा	-6.96735
▁कई	-6.97054
▁बार	-6.97567
▁समय	-6.97743
ियों	-6.98282
ई	-6.98286
▁उनके	-6.98314
ित	-6.98801
▁हुई	-7.00423
▁दिन	-7.01025
ती	-7.02092
▁काम	-7.02525
▁‘	-7.0255
श	-7.02587
▁वे	-7.04255
ें	-7.06193
ली	-7.06881
सी	-7.07626
▁द्वारा	-7.07682
▁हम	-7.07831
िंग	-7.10041
री	-7.10967
▁उन्हें	-7.11694
▁फिर	-7.12385
▁सभी	-7.13042
िक	-7.13476
▁जाता	-7.14263
▁जाने	-7.15546
▁होता	-7.15704
’	-7.16463
▁करना	-7.16825
▁नाम	-7.17698
▁'	-7.17807
▁रूप	-7.17868
ि	-7.18104
▁कम	-7.18405
▁होगा	-7.1883
ए	-7.1899
▁लोग	-7.20009
▁प्रदेश	-7.20801
▁बहुत	-7.212
▁सकता	-7.21513
▁कांग्रेस	-7.21699
च	-7.22314
▁म	-7.22433
▁हर	-7.22863
▁दिल्ली	-7.2395
▁लिया	-7.24243
▁चुनाव	-7.24668
▁घर	-7.24723
▁ब	-7.25409
नी	-7.26441
▁सकते	-7.26945
▁फिल्म	-7.27131
▁दौरान	-7.27959
▁स	-7.28058
▁टीम	-7.29014
▁ले	-7.29581
का	-7.29976
▁भारतीय	-7.30278
▁एवं	-7.31391
ू	-7.31568
▁सबसे	-7.31634
जी	-7.31804
▁मैं	-7.32938
▁पार्टी	-7.35561
▁क्या	-7.35684
▁कारण	-7.35905
▁वाली	-7.35984
▁बीच	-7.36159
▁उनकी	-7.36425
▁ना	-7.36526
▁वो	-7.36683
▁उसके	-7.37053
वा	-7.37658
▁क	-7.37675
मा	-7.37787
ले	-7.3849
▁तथा	-7.38656
▁शुरू	-7.39685
▁उस	-7.4
▁मामले	-7.40339
▁पास	-7.40451
▁दे	-7.40642
▁चाहिए	-7.40811
▁उसे	-7.41366
▁यहां	-7.41487
य	-7.42187
ड़	-7.42502
ख	-7.4328
िया	-7.43451
▁दोनों	-7.43635
▁जी	-7.43643
फ	-7.43768
ण	-7.43973
▁प	-7.44208
▁क्षेत्र	-7.44325
▁ऐसे	-7.44507
▁मोदी	-7.44607
?	-7.44844
▁अगर	-7.45108
'	-7.45603
▁आपको	-7.45713
...	-7.48181
ओं	-7.48591
▁देने	-7.4867
▁अपना	-7.48682
▁अधिक	-7.48773
▁खिलाफ	-7.48802
▁राज्य	-7.49157
या	-7.49289
▁ज्यादा	-7.50749
▁होती	-7.51617
▁मे	-7.51792
▁रुपये	-7.53778
पी	-7.54885
▁-	-7.55142
▁तीन	-7.56719
▁करोड़	-7.56822
▁:	-7.57265
▁अन्य	-7.5774
▁कुमार	-7.57987
▁वर्ष	-7.58893
▁पूर्व	-7.59132
▁बारे	-7.59234
▁इससे	-7.59873
▁आई	-7.60027
▁करें	-7.60115
▁प्र	-7.60239
▁मंत्री	-7.61244
▁भाजपा	-7.61248
▁ऐसा	-7.61817
ु	-7.61941
पुर	-7.62008
डी	-7.62314
▁जाएगा	-7.62327
▁किए	-7.62623
▁काफी	-7.62654
▁लगा	-7.62904
ंग	-7.63072
▁ग	-7.63252
टी	-7.6349
ीय	-7.64148
▁10	-7.64192
▁शामिल	-7.64306
्य	-7.64311
▁वहीं	-7.64365
के	-7.64644
बी	-7.65159
▁वि	-7.66782
▁लाख	-7.67095
▁जारी	-7.67154
▁ओर	-7.67473
▁19	-7.67534
▁ए	-7.68837
सा	-7.69088
▁जानकारी	-7.69162
▁बना	-7.69177
▁सी	-7.70892
्	-7.71797
▁कंपनी	-7.72142
▁होगी	-7.72757
s	-7.72874
▁मुख्यमंत्री	-7.73438
▁महिला	-7.73517
थ	-7.73592
▁जैसे	-7.74245
▁प्रति	-7.74502
▁करता	-7.74644
▁विभाग	-7.75044
▁।	-7.75457
▁पा	-7.75496
▁पिछले	-7.75557
▁मिल	-7.75971
▁सा	-7.76179
▁बता	-7.76421
▁सामने	-7.77171
वर	-7.77487
▁उ	-7.77505
▁विकास	-7.77557
▁ज	-7.78184
▁|	-7.78243
▁सब	-7.78264
▁सकती	-7.78345
▁इसी	-7.79652
▁2	-7.79736
▁अध्यक्ष	-7.8006
▁इसे	-7.80505
▁आने	-7.80614
▁अनुसार	-7.80796
▁इ	-7.81182
▁मांग	-7.81745
▁पूरी	-7.82331
▁गांव	-7.82525
▁अभी	-7.82673
▁जाती	-7.82756
एं	-7.83201
▁राम	-7.83416
ंड	-7.83548
▁करीब	-7.83657
▁र	-7.83666
▁सु	-7.84642
▁नई	-7.85291
▁चल	-7.85295
्या	-7.85904
▁होते	-7.86225
▁क्योंकि	-7.87601
▁जांच	-7.87697
▁मैच	-7.87877
▁दर्ज	-7.87963
रे	-7.88264
वि	-7.88379
▁मु	-7.88717
▁3	-7.88909
़	-7.89049
▁जबकि	-7.89099
o	-7.89321
▁इसमें	-7.89416
▁बड़ी	-7.89458
▁आरोप	-7.89499
से	-7.89516
जा	-7.89769
▁उनका	-7.89934
की	-7.89944
▁नि	-7.90135
▁प्रधानमंत्री	-7.90352
▁जहां	-7.90519
▁बाहर	-7.90704
▁कार्य	-7.90919
▁मुझे	-7.9104
▁बंद	-7.91217
▁बनाने	-7.91382
▁नेता	-7.9264
▁5	-7.93147
▁जिला	-7.93224
▁1	-7.9327
▁आगे	-7.93464
गा	-7.93628
गी	-7.93648
▁वजह	-7.93713
▁मीडिया	-7.93767
▁च	-7.93834
▁तब	-7.93923
▁रुपए	-7.93963
▁दिए	-7.94042
▁अलावा	-7.94301
ाई	-7.94353
▁जिसमें	-7.94374
▁इसलिए	-7.94435
ओ	-7.94813
e	-7.95139
▁हालांकि	-7.95215
▁चार	-7.95227
▁बन	-7.95404
▁श्री	-7.95465
▁ली	-7.95891
/	-7.96108
▁सं	-7.96144
▁ह	-7.96226
▁उत्तर	-7.96879
▁उसकी	-7.97168
|	-7.97323
प्र	-7.97398
▁द	-7.97586
वी	-7.97752
▁बे	-7.98461
▁बी	-7.986
▁पाकिस्तान	-7.98813
▁पी	-7.991
▁ख	-7.99318
▁हजार	-7.99578
▁कभी	-7.99901
▁ल	-8.00068
▁अधिकारी	-8.00325
▁उन	-8.00472
ौ	-8.00523
▁पानी	-8.00533
▁मुताबिक	-8.00546
▁दें	-8.01016
▁कहना	-8.01228
कार	-8.01621
एस	-8.0173
▁दूसरे	-8.01803
▁बस	-8.01832
▁इसका	-8.02433
▁बैठक	-8.02716
▁रह	-8.03242
▁अलग	-8.0336
मी	-8.03496
▁बैंक	-8.03701
▁मा	-8.03705
▁बा	-8.03868
▁दिनों	-8.04139
▁मुख्य	-8.04375
▁त	-8.04551
▁कोर्ट	-8.04765
▁परिवार	-8.04975
ियां	-8.05106
▁कु	-8.05402
▁तैयार	-8.05458
▁जीवन	-8.0566
▁गांधी	-8.05756
दा	-8.05774
▁12	-8.05786
▁6	-8.0601
▁राज	-8.06017
0	-8.06034
▁आपके	-8.06172
▁पता	-8.06454
ज़	-8.06464
▁मन	-8.06503
▁योजना	-8.06935
▁शहर	-8.07352
ात	-8.07493
▁हूं	-8.0753
अ	-8.07663
▁तहत	-8.07689
▁जाए	-8.07952
▁जाते	-8.07975
▁पांच	-8.0798
▁वाला	-8.08126
▁शर्मा	-8.08167
▁वहां	-8.08641
▁4	-8.0881
▁नजर	-8.08977
▁"	-8.09283
▁हमारे	-8.0948
▁खुद	-8.09718
▁रिपोर्ट	-8.09962
▁आम	-8.09973
▁केंद्र	-8.1012
▁जिस	-8.10189
भ	-8.10226
▁रन	-8.10633
▁मौत	-8.10866
▁स्कूल	-8.10868
▁कार्यक्रम	-8.10932
ंस	-8.11164
▁आया	-8.11472
▁भर	-8.11488
▁पूरा	-8.11745
▁ला	-8.11772
▁दुनिया	-8.12274
▁ई	-8.12507
हा	-8.12737
रो	-8.13198
▁15	-8.13381
▁फीसदी	-8.13451
▁बड़े	-8.13454
र्स	-8.13752
▁पहली	-8.13848
▁प्रदर्शन	-8.13992
▁,	-8.14014
▁रात	-8.14195
▁जनता	-8.14245
▁जिसके	-8.14365
▁मिला	-8.14389
▁20	-8.14588
▁देते	-8.15289
▁उसने	-8.15792
ै	-8.15804
▁बड़ा	-8.16483
▁जीत	-8.16499
▁तरफ	-8.16847
ँ	-8.17153
आई	-8.17235
▁आए	-8.17281
▁मेरे	-8.17342
▁बच्चों	-8.17344
ध	-8.17474
बा	-8.1782
▁जगह	-8.17835
▁खान	-8.18569
▁सिर्फ	-8.18799
शा	-8.19039
▁रहने	-8.19134
▁रि	-8.19303
▁8	-8.19325
▁घटना	-8.19419
पा	-8.19452
▁राष्ट्रीय	-8.19521
▁करेंगे	-8.19564
ंट	-8.19636
▁करती	-8.19649
▁यदि	-8.19696
3	-8.19847
▁सुरक्षा	-8.20199
▁पद	-8.20571
▁नगर	-8.20693
▁मिली	-8.20726
▁दूर	-8.20758
▁करके	-8.20794
▁11	-8.21085
▁स्थित	-8.21407
▁आधार	-8.2158
▁कल	-8.21654
▁समाज	-8.21881
्र	-8.22107
▁रंग	-8.22198
▁यादव	-8.22545
▁–	-8.22606
▁फ	-8.23075
स्ट	-8.23077
!	-8.23129
टा	-8.23341
्‍	-8.23393
4	-8.23603
▁आदि	-8.23638
▁शिक्षा	-8.23758
▁तौर	-8.2387
▁श	-8.23924
▁मंदिर	-8.23961
▁विधानसभा	-8.23997
▁ऐसी	-8.24316
▁निर्माण	-8.24337
▁बाजार	-8.24469
▁मदद	-8.24544
पर	-8.2482
▁प्रतिशत	-8.25085
▁व्यक्ति	-8.25101
▁खेल	-8.25125
▁इंडिया	-8.25159
▁इसकी	-8.25335
▁विशेष	-8.25483
▁लिये	-8.25551
y	-8.25732
▁लेने	-8.25864
▁आहे	-8.25949
▁सवाल	-8.26007
▁स्थिति	-8.2632
▁प्राप्त	-8.26524
ठ	-8.26591
ही	-8.26855
▁कार	-8.27251
▁महीने	-8.27446
▁प्रमुख	-8.27531
▁हाथ	-8.27789
▁वीडियो	-8.27931
▁बजे	-8.28239
▁जिससे	-8.2839
▁7	-8.28492
▁स्तर	-8.28573
▁ट	-8.28897
वे	-8.29008
को	-8.29237
▁देख	-8.29342
▁नए	-8.29373
▁जाएगी	-8.29378
▁बढ़	-8.29499
▁स्थान	-8.29613
▁बीजेपी	-8.29671
▁पहुंच	-8.29919
एम	-8.30048
▁विश्व	-8.3008
▁बयान	-8.30104
▁प्रकार	-8.3055
▁चला	-8.30676
▁लगे	-8.30786
▁केवल	-8.31028
u	-8.31108
▁कोशिश	-8.31289
दार	-8.31319
▁अस्पताल	-8.3152
ड़ी	-8.31709
▁सुबह	-8.31754
▁चुके	-8.31922
ड़ा	-8.32005
▁मैंने	-8.32137
ति	-8.32176
▁उप	-8.32416
▁हाल	-8.32469
▁पूरे	-8.32583
▁मौके	-8.32668
▁9	-8.32995
▁जिले	-8.33093
क्ष	-8.33107
▁भाग	-8.33107
▁मुंबई	-8.33344
▁इस्तेमाल	-8.33483
▁विरोध	-8.33535
2	-8.33589
ष	-8.33659
▁हमें	-8.33793
▁डॉ	-8.33847
▁ध्यान	-8.3468
दी	-8.34981
▁उसका	-8.35581
i	-8.3591
▁धर्म	-8.3592
िट	-8.36042
▁टी	-8.36257
मे	-8.36324
आ	-8.36392
▁राहुल	-8.36505
▁मामला	-8.36583
▁हे	-8.36658
▁अधिकारियों	-8.36758
▁होना	-8.368
ॉ	-8.37305
▁शादी	-8.37502
उ	-8.3753
▁जन	-8.37662
िल	-8.37678
▁गयी	-8.3772
▁जाना	-8.38339
▁कुल	-8.38368
▁संख्या	-8.38691
1	-8.3874
▁भ	-8.38752
▁जान	-8.39138
▁दूसरी	-8.39361
स्त	-8.39516
▁वा	-8.39528
d	-8.39635
ाने	-8.39646
▁सर	-8.39694
▁घ	-8.39854
नि	-8.39978
▁जल	-8.40108
▁शिकायत	-8.40121
▁कै	-8.4019
▁खास	-8.40406
िन	-8.40539
ार	-8.40748
▁गो	-8.40772
▁दर	-8.41144
▁समझ	-8.41158
▁हत्या	-8.41236
▁एम	-8.4138
▁बल्कि	-8.414
▁परीक्षा	-8.41445
▁लाल	-8.41591
▁होंगे	-8.4172
▁“	-8.41785
▁डी	-8.42252
▁बिना	-8.42388
a	-8.42729
▁ओ	-8.42833
▁सूचना	-8.42876
ेट	-8.42931
▁सरकारी	-8.43305
▁मौजूद	-8.43359
चा	-8.4338
▁पत्र	-8.43392
▁रखा	-8.43548
▁चुकी	-8.43668
▁लगाया	-8.43751
▁जवाब	-8.44053
▁लाभ	-8.44188
▁30	-8.44196
▁लगभग	-8.44361
मान	-8.44502
▁वित्त	-8.44684
▁यही	-8.44738
▁लग	-8.44776
t	-8.45021
▁चलते	-8.45038
▁2018	-8.45067
▁18	-8.45329
▁अच्छा	-8.45383
▁लगातार	-8.45384
िका	-8.45481
▁कार्रवाई	-8.45785
▁मां	-8.46035
▁आदेश	-8.46054
▁विधायक	-8.46094
▁कहते	-8.46154
▁कैसे	-8.4623
ंक	-8.46263
▁एस	-8.46584
्यू	-8.47219
n	-8.47299
▁हा	-8.47373
यर	-8.47755
पाल	-8.47766
▁क्यों	-8.47853
▁देखा	-8.4791
▁चाहते	-8.47999
▁रा	-8.48353
▁डि	-8.48564
टर	-8.48642
▁मो	-8.48809
▁गा	-8.48896
▁थीं	-8.4895
▁सके	-8.48985
▁महिलाओं	-8.49001
▁सेवा	-8.49049
ास	-8.49165
▁S	-8.49255
आर	-8.49318
▁सि	-8.49529
▁P	-8.49543
▁जरूरत	-8.49652
▁बनाया	-8.49679
▁लगी	-8.49765
▁खा	-8.49793
▁कानून	-8.49841
▁छ	-8.49958
▁पेश	-8.50348
राज	-8.50455
A	-8.50468
▁विभिन्न	-8.50513
▁रखने	-8.50561
▁मान	-8.50874
▁फैसला	-8.51126
▁कह	-8.51585
▁पंजाब	-8.516
▁क्रिकेट	-8.51659
▁अमेरिका	-8.51664
▁व्यवस्था	-8.51754
▁किसानों	-8.51766
5	-8.51833
▁संघ	-8.51889
▁जे	-8.51902
▁चीन	-8.51911
S	-8.52068
▁चुका	-8.52069
▁देखने	-8.52088
जन	-8.52447
▁सहित	-8.52601
▁फोन	-8.52674
▁हरियाणा	-8.52699
▁दिल	-8.52793
ेश	-8.52893
▁बने	-8.52933
टे	-8.53186
▁14	-8.53247
▁छोड़	-8.53374
▁सही	-8.53537
यों	-8.53583
▁चर्चा	-8.53612
▁राशि	-8.53849
▁उपलब्ध	-8.53922
▁पिता	-8.53999
▁लिखा	-8.54072
▁बनाए	-8.54428
▁गये	-8.54457
▁लगता	-8.54611
▁मेरी	-8.54774
ून	-8.54929
▁बच्चे	-8.55032
ाय	-8.55058
▁25	-8.55119
▁बल	-8.5512
ेज	-8.55165
▁गिरफ्तार	-8.55291
▁खबर	-8.55361
▁अवसर	-8.55582
▁पक्ष	-8.55649
▁मिलने	-8.55771
▁सेना	-8.55822
चे	-8.55959
ान	-8.56267
g	-8.5706
शी	-8.57071
िस	-8.57344
▁महा	-8.57344
▁स्वास्थ्य	-8.57449
इ	-8.57636
राम	-8.57725
▁यात्रा	-8.58206
▁शाह	-8.58228
▁पहुंचे	-8.58309
▁विचार	-8.58366
▁50	-8.58453
▁धन	-8.58471
▁नंबर	-8.58671
फ़	-8.58675
▁पत्नी	-8.59046
▁सोमवार	-8.59099
▁आयोजित	-8.5911
▁हासिल	-8.59405
▁निर्देश	-8.59462
▁...	-8.59533
al	-8.59661
▁अच्छी	-8.59714
▁बिहार	-8.59715
▁भाई	-8.59843
▁लोक	-8.59854
▁जिसे	-8.60071
▁प्रशासन	-8.60254
▁बढ़ा	-8.60279
▁13	-8.60303
▁ऑफ	-8.60326
▁सड़क	-8.60413
▁वक्त	-8.60425
ंद	-8.60585
▁बदल	-8.60586
▁तेज	-8.60666
▁संबंध	-8.60832
▁A	-8.60993
▁लोकसभा	-8.6101
ये	-8.61143
▁विकेट	-8.61167
▁16	-8.61224
6	-8.61362
▁पीछे	-8.61517
▁शेयर	-8.61584
▁पड़ा	-8.61607
▁समस्या	-8.61858
▁तय	-8.61944
▁सोच	-8.62007
▁टेस्ट	-8.62083
▁शो	-8.62089
▁मंगलवार	-8.62222
ेंगे	-8.62239
मो	-8.62262
▁दल	-8.62313
छ	-8.62343
▁सो	-8.62366
▁उम्मीद	-8.62465
▁आपकी	-8.62679
▁माना	-8.63015
▁ता	-8.63053
र्	-8.63197
▁राष्ट्रपति	-8.63234
▁मार	-8.63309
▁पड़	-8.63339
▁ठीक	-8.63497
▁अन	-8.63509
▁गिर	-8.63858
▁समिति	-8.63997
ोर	-8.64059
▁घोषणा	-8.64086
▁शुक्रवार	-8.64249
▁ऊपर	-8.6447
00	-8.6479
▁मै	-8.64951
▁बोर्ड	-8.64962
र्ड	-8.65064
ची	-8.65065
जे	-8.65066
▁आरोपी	-8.65158
▁नरेंद्र	-8.65335
त्र	-8.65371
खा	-8.65628
▁यू	-8.65843
्व	-8.65931
▁उपयोग	-8.66051
▁किस	-8.66372
▁जनवरी	-8.66372
9	-8.66397
▁जमा	-8.66436
▁सीमा	-8.66546
कि	-8.66776
▁स्ट	-8.66798
भा	-8.67069
"	-8.67293
▁पीएम	-8.67379
▁प्रयास	-8.67548
ेड	-8.67743
▁वालों	-8.67836
▁उच्च	-8.68377
वार	-8.68542
▁शनिवार	-8.68546
k	-8.68577
ाव	-8.68802
▁वरिष्ठ	-8.68825
▁रविवार	-8.68831
▁राजनीति	-8.68836
▁बुधवार	-8.68883
तर	-8.68887
▁B	-8.68904
▁कहीं	-8.68955
▁रहते	-8.68969
▁बेहतर	-8.68976
▁झ	-8.69066
▁मध्य	-8.69079
▁आर	-8.69168
▁वर्ग	-8.69251
▁डे	-8.69305
▁राजनीतिक	-8.69495
▁विवाद	-8.69602
ळ	-8.69621
▁कश्मीर	-8.69655
▁भारी	-8.69811
▁कीमत	-8.69922
▁आर्थिक	-8.70419
▁सोशल	-8.70419
p	-8.70469
▁जल्द	-8.70602
▁शिव	-8.70729
▁ड	-8.70756
▁2019	-8.71006
▁बिजली	-8.71061
ेशन	-8.71096
ंज	-8.71293
▁सचिव	-8.71455
▁ताकि	-8.71476
▁पंचायत	-8.71632
▁एन	-8.71732
▁हिस्सा	-8.71747
▁आयोग	-8.7181
▁अभियान	-8.71865
▁नही	-8.71913
ढ	-8.72009
▁अदालत	-8.72038
▁पहचान	-8.72213
8	-8.72239
▁शरीर	-8.72271
▁देशों	-8.72334
▁केंद्रीय	-8.72361
एन	-8.72531
डा	-8.72607
P	-8.72813
ंत	-8.7285
▁सुप्रीम	-8.72975
▁भगवान	-8.72979
▁पि	-8.73062
▁गु	-8.73114
▁नेताओं	-8.73149
▁देर	-8.73405
▁कदम	-8.73468
▁बि	-8.73814
▁जमीन	-8.73929
▁कप	-8.73971
एल	-8.73973
%	-8.7398
▁छात्र	-8.74068
िए	-8.74347
लि	-8.7435
I	-8.7451
▁निकल	-8.74578
वीं	-8.74664
▁17	-8.74793
▁होकर	-8.74876
▁मि	-8.74884
▁मंत्रालय	-8.75057
▁मार्च	-8.75067
स्	-8.7517
धा	-8.75263
▁मह	-8.75329
▁हमारी	-8.75395
er	-8.75425
स्थ	-8.75478
णी	-8.75505
▁अगले	-8.75719
▁याद	-8.75733
h	-8.75736
▁आयोजन	-8.75824
r	-8.76039
▁शुरुआत	-8.76183
▁पति	-8.76189
▁जेल	-8.76267
▁शाम	-8.76333
▁देना	-8.76547
▁इतना	-8.76571
▁सात	-8.76908
घ	-8.76932
▁समर्थन	-8.76935
▁मिले	-8.76946
▁कमी	-8.76992
ीन	-8.77013
▁चि	-8.7707
यू	-8.77206
▁लगाने	-8.77286
▁सह	-8.77363
ृ	-8.77682
▁माध्यम	-8.77716
▁वापस	-8.77848
▁/	-8.77928
▁सम	-8.77989
▁जन्म	-8.78021
▁हमेशा	-8.78354
▁रोक	-8.78381
▁हार	-8.78448
▁साफ	-8.78603
▁डा	-8.78942
▁जून	-8.79023
▁बाल	-8.79057
इस	-8.79377
▁पसंद	-8.79415
▁दक्षिण	-8.79442
▁थाना	-8.79718
▁लागू	-8.79815
▁दा	-8.79903
▁सदस्य	-8.79948
T	-8.79981
▁खरीद	-8.80152
▁C	-8.80228
▁बावजूद	-8.80297
▁खर्च	-8.80371
ेन	-8.80398
▁प्रक्रिया	-8.80424
▁जिन	-8.80848
▁24	-8.80866
▁ब्र	-8.80977
▁कंपनियों	-8.80996
▁भर्ती	-8.80996
20	-8.81034
▁जुड़े	-8.81287
▁देखते	-8.81298
▁बेहद	-8.81316
b	-8.8144
▁नया	-8.81544
शन	-8.81546
▁उसी	-8.81581
▁स्व	-8.81658
c	-8.81768
▁बनी	-8.81851
▁घंटे	-8.81893
▁सुधार	-8.81904
▁अंदर	-8.81981
झ	-8.82029
▁निवेश	-8.82085
▁किसान	-8.82129
▁अगस्त	-8.82215
▁नीचे	-8.82475
▁आग	-8.82528
▁स्थानीय	-8.8275
▁ग्राम	-8.83052
ऊ	-8.83128
▁देता	-8.8322
▁आवेदन	-8.83253
an	-8.83263
▁दिख	-8.83282
च्या	-8.83332
C	-8.83349
फा	-8.83455
▁संगठन	-8.83491
्म	-8.83572
दर	-8.83638
▁राजस्थान	-8.83651
िश	-8.83725
▁देव	-8.83778
वाद	-8.83814
वें	-8.8395
▁करा	-8.84025
▁पे	-8.84057
ेल	-8.84067
▁गंभीर	-8.84105
▁नुकसान	-8.84367
▁जुलाई	-8.84368
▁इं	-8.84476
▁कर्मचारियों	-8.84566
▁मोबाइल	-8.84764
▁कार्यालय	-8.84776
▁रेलवे	-8.84786
▁युवक	-8.84881
▁शा	-8.84993
▁रख	-8.85045
▁सीट	-8.85181
▁21	-8.8522
▁मेरा	-8.85247
▁रे	-8.85328
▁पहला	-8.85335
▁गुजरात	-8.85512
▁युवा	-8.85724
▁माह	-8.85741
▁पार	-8.8583
▁निवासी	-8.85852
▁एल	-8.85859
▁संसद	-8.86031
▁सांसद	-8.8606
▁क्र	-8.86238
▁न्यायालय	-8.86503
”	-8.86708
▁वोट	-8.86761
▁लें	-8.86765
▁जि	-8.86846
▁जाएंगे	-8.86856
▁प्रेम	-8.87073
▁बारिश	-8.87208
▁निर्णय	-8.87244
▁राष्ट्र	-8.8733
▁डाल	-8.87566
▁अंतिम	-8.87658
रिया	-8.87936
क्	-8.88103
▁छात्रों	-8.8821
ड़े	-8.88288
मन	-8.88425
एफ	-8.8848
▁प्रकाश	-8.88487
▁उससे	-8.88502
▁भा	-8.88543
▁घायल	-8.88615
गर	-8.8876
्‍य	-8.88901
▁विजय	-8.88906
▁फोटो	-8.88961
▁अप्रैल	-8.89024
▁ध	-8.89042
▁दिवस	-8.89088
7	-8.89089
डे	-8.89209
▁अस	-8.89256
▁यानी	-8.89512
▁हूँ	-8.89525
र्म	-8.89567
▁जरूरी	-8.89669
▁प्रधान	-8.89711
▁छह	-8.89718
▁किये	-8.89809
▁भेज	-8.89976
ाया	-8.90107
▁भूमिका	-8.90116
▁निगम	-8.90137
▁प्रदान	-8.90243
▁कार्ड	-8.9027
सु	-8.90426
▁तेल	-8.90443
▁खत्म	-8.90556
▁आता	-8.90618
▁स्	-8.90635
▁मई	-8.90697
▁सभा	-8.90831
▁पो	-8.9095
ंगी	-8.90993
▁बनने	-8.91078
▁मिनट	-8.9112
▁योग	-8.91311
▁अंक	-8.91339
▁अरब	-8.91631
▁दिसंबर	-8.91755
वाल	-8.91777
▁प्रयोग	-8.9178
▁विदेश	-8.91878
▁उनसे	-8.91922
▁सिर	-8.91929
▁बेटी	-8.91953
▁लौट	-8.91964
▁गलत	-8.91985
▁लड़की	-8.92002
▁लि	-8.92019
▁हि	-8.92207
▁जैसी	-8.9221
▁पाया	-8.92282
सं	-8.92388
▁फ़	-8.92393
▁उम्र	-8.92683
▁M	-8.92694
ंच	-8.92808
,000	-8.92834
▁पूजा	-8.92983
▁महत्वपूर्ण	-8.93047
▁कप्तान	-8.93097
▁जय	-8.93273
▁रो	-8.93336
रों	-8.93419
बे	-8.93433
▁हमने	-8.93469
▁करेगा	-8.93492
▁उद्योग	-8.93548
▁अधिकार	-8.93613
▁पैसे	-8.9365
ाइ	-8.93654
or	-8.93782
▁निजी	-8.93935
ः	-8.94035
क्स	-8.94109
▁प्यार	-8.94277
▁खिलाड़ी	-8.94354
▁बातचीत	-8.94418
▁100	-8.94589
नाथ	-8.94637
▁समेत	-8.94637
M	-8.94703
at	-8.94835
▁थ	-8.9487
▁सत्ता	-8.949
िटी	-8.94977
▁रहता	-8.95198
▁फैसले	-8.9537
▁लो	-8.95418
म्प	-8.95448
▁आदमी	-8.95518
▁देकर	-8.9552
▁T	-8.95684
बल	-8.95737
▁निकाल	-8.95779
▁ओवर	-8.95812
▁जु	-8.95869
▁दरअसल	-8.95887
▁सीएम	-8.95907
सर	-8.96078
र्ट	-8.96086
▁दावा	-8.96114
▁कराने	-8.96199
▁तेजी	-8.96259
हार	-8.96372
▁दिशा	-8.96389
▁कर्मचारी	-8.96406
▁आठ	-8.96437
▁आते	-8.96627
▁संबंधित	-8.9669
ar	-8.96703
),	-8.96817
ॅ	-8.96836
ण्ड	-8.97049
मेंट	-8.97079
▁सामना	-8.97292
▁नौ	-8.97448
▁देवी	-8.97554
l	-8.97783
▁हमला	-8.98016
▁बु	-8.98019
▁नव	-8.98023
▁परिषद	-8.98058
▁दु	-8.98534
▁कराया	-8.98689
▁माल	-8.98755
▁गुरुवार	-8.98829
▁कहानी	-8.98869
▁22	-8.99012
▁!	-8.99134
▁आंदोलन	-8.99196
▁बॉलीवुड	-8.99197
▁मार्ग	-8.99299
▁हिंदी	-8.99354
▁इतिहास	-8.99429
▁विषय	-8.99454
▁छोटे	-8.99576
▁पैदा	-8.9962
▁हमले	-8.99697
▁वन	-8.99744
▁2017	-8.99747
ां	-8.99987
▁R	-9.00014
▁आपका	-9.00203
हि	-9.00219
▁साबित	-9.00273
▁करे	-9.00301
▁लेते	-9.00463
▁सर्व	-9.00595
हर	-9.00742
▁कौन	-9.00778
▁सम्मान	-9.0101
▁ठ	-9.01027
▁दस	-9.01061
▁उठा	-9.01111
▁मुश्किल	-9.01127
▁मैदान	-9.01142
ूल	-9.01155
▁इलाके	-9.01361
▁नवंबर	-9.01365
▁सामाजिक	-9.01404
ियो	-9.01472
यी	-9.01486
▁प्रस्ताव	-9.01582
▁दिखाई	-9.01721
▁भाव	-9.01727
▁भाषा	-9.01765
देश	-9.01899
▁बदलाव	-9.019
नगर	-9.01949
लो	-9.02
▁बोल	-9.02174
▁कपूर	-9.02187
▁मगर	-9.02232
▁संयुक्त	-9.02242
म्ब	-9.02351
▁सौ	-9.02358
▁असर	-9.02409
▁तुम	-9.02412
▁40	-9.02415
▁रोड	-9.02421
▁तरीके	-9.02541
▁क्षेत्रों	-9.02662
ंब	-9.02667
ुल	-9.02674
▁कारोबार	-9.02688
बर	-9.02873
स्प	-9.0291
▁राय	-9.02962
गत	-9.03122
▁प्रो	-9.03371
▁यूपी	-9.03397
▁नीति	-9.03409
रण	-9.03412
▁सहयोग	-9.03513
▁परिणाम	-9.03574
▁विश्वविद्यालय	-9.03735
▁मजबूत	-9.03844
▁प्रभावित	-9.03894
▁वी	-9.03978
ूर	-9.03997
▁खुश	-9.04016
▁शि	-9.04053
▁पोस्ट	-9.04233
▁डॉलर	-9.04318
▁अच्छे	-9.04376
▁मौसम	-9.04461
त्त	-9.04619
▁खराब	-9.04706
▁रहेगा	-9.0475
▁सजा	-9.04787
▁मी	-9.04862
न्द	-9.04931
▁चौक	-9.05006
ing	-9.05225
▁ट्वीट	-9.05266
रि	-9.05272
द्ध	-9.05507
▁जम्मू	-9.0551
▁नौकरी	-9.05511
▁याचिका	-9.05592
▁मिलेगा	-9.05594
▁वही	-9.05708
▁समारोह	-9.05755
गढ़	-9.05763
▁अल	-9.0577
र्ज	-9.05864
▁पड़ता	-9.05892
र्न	-9.06108
लाल	-9.06157
▁रहती	-9.06416
▁मुस्लिम	-9.06451
गो	-9.06987
▁ट्रेन	-9.07022
गु	-9.07052
▁जरिए	-9.0707
▁ते	-9.07152
▁शायद	-9.07153
▁पढ़ें	-9.07197
▁23	-9.0721
▁सामान्य	-9.07277
▁मत	-9.07616
▁सितंबर	-9.07734
ियन	-9.07742
गे	-9.07814
▁नेतृत्व	-9.07818
क्र	-9.08066
▁महाराष्ट्र	-9.08076
ीकरण	-9.0808
रु	-9.08148
▁राज्यों	-9.08149
▁प्रवेश	-9.08171
▁कॉलेज	-9.08247
र्क	-9.08279
▁वैसे	-9.08352
▁मौका	-9.08362
▁करेगी	-9.08373
▁अपराध	-9.08421
▁मुकाबले	-9.08437
▁पु	-9.08522
▁डर	-9.0858
E	-9.08603
▁स्पष्ट	-9.08745
▁उठ	-9.08839
पूर्ण	-9.0885
re	-9.08893
ेस	-9.0892
▁माता	-9.09148
▁लड़	-9.09304
▁फरवरी	-9.0933
▁सू	-9.09489
▁s	-9.09536
es	-9.09641
▁उम्मीदवार	-9.09661
मु	-9.09733
▁सफलता	-9.09735
▁कही	-9.09904
▁आय	-9.09914
▁अप	-9.09944
सन	-9.10266
D	-9.10516
▁व्यापार	-9.10797
▁तर	-9.10823
▁हु	-9.10833
▁समूह	-9.10865
स्क	-9.10917
▁विमान	-9.10957
▁पै	-9.10958
▁शक्ति	-9.10993
▁बिल	-9.11025
पन	-9.11027
न्न	-9.11042
▁पारी	-9.11054
▁सुविधा	-9.1108
▁अमित	-9.11128
्ड	-9.11368
▁‘‘	-9.11509
क़	-9.11547
▁बेटे	-9.11617
▁दौर	-9.11645
र्थ	-9.11692
क्क	-9.1183
▁संभावना	-9.11861
▁बताते	-9.11873
▁बजट	-9.11954
▁अहम	-9.12108
▁शव	-9.12177
पे	-9.12207
▁—	-9.12207
▁अतिरिक्त	-9.12599
वान	-9.12627
▁खुल	-9.1266
▁टीवी	-9.12675
▁वाहन	-9.12759
▁यहाँ	-9.12777
▁सारे	-9.12864
▁सफल	-9.13166
▁पत्रकार	-9.13167
▁लखनऊ	-9.13213
▁जानते	-9.13347
▁बै	-9.13349
हे	-9.13411
▁लक्ष्य	-9.13488
(	-9.13585
हम	-9.13595
in	-9.13674
f	-9.13689
▁दिखा	-9.13737
▁खाने	-9.13761
▁D	-9.13781
▁रक्षा	-9.13842
▁कं	-9.13963
▁शासन	-9.14031
कों	-9.14132
▁सुनवाई	-9.14191
▁सूत्रों	-9.14212
कल	-9.1424
▁मना	-9.1426
देव	-9.14325
▁करवा	-9.14375
m	-9.14451
▁देखकर	-9.14605
▁फा	-9.1464
▁पूर्ण	-9.14734
▁जाकर	-9.14766
धी	-9.14876
▁अनुभव	-9.14899
पो	-9.14915
▁चौ	-9.1497
रू	-9.15064
▁26	-9.15072
▁अक्टूबर	-9.15078
▁स्टेशन	-9.15105
▁पढ़	-9.15306
▁सुन	-9.15397
▁ग्रामीण	-9.15432
▁अनु	-9.15533
▁जिसका	-9.15543
▁28	-9.15546
जि	-9.15557
▁चा	-9.15744
▁प्रचार	-9.15747
▁फल	-9.15771
▁परेशान	-9.15798
▁दूसरा	-9.15888
▁उपस्थित	-9.15901
ेंद्र	-9.15942
▁पुत्र	-9.15943
▁27	-9.15952
▁सुख	-9.15957
▁कृषि	-9.15978
▁फिलहाल	-9.16069
ग्र	-9.1615
▁वृद्धि	-9.16355
कु	-9.16355
त्	-9.16588
▁बैठ	-9.16617
▁कोहली	-9.16629
▁लगाए	-9.16671
▁आती	-9.16766
▁रोग	-9.16892
▁तस्वीर	-9.16893
R	-9.17004
▁गुरु	-9.17047
बू	-9.17074
िस्ट	-9.17268
▁प्रभाव	-9.17369
▁सेक्स	-9.17394
▁इलाज	-9.17442
▁सीरीज	-9.17639
▁H	-9.17943
▁स्टार	-9.17989
▁सलमान	-9.17997
▁तभी	-9.18008
▁अनेक	-9.18188
▁अंत	-9.18212
▁इनमें	-9.18236
▁बो	-9.18276
▁अव	-9.18289
नो	-9.18291
ाब	-9.18295
▁हिमाचल	-9.18358
ल्	-9.18359
▁पहुंचा	-9.1836
यां	-9.18395
तम	-9.184
▁विश्वास	-9.1841
साथ	-9.18452
B	-9.185
ाल	-9.18504
ंडा	-9.18632
▁प्रसाद	-9.18637
दान	-9.18671
व्य	-9.18701
▁सै	-9.18724
िज	-9.18724
▁रेल	-9.18839
ेंट	-9.19101
▁एंड	-9.19113
णा	-9.19166
;	-9.19195
▁अमेरिकी	-9.19382
▁य	-9.19492
▁शराब	-9.19571
▁चिंता	-9.19666
▁भूमि	-9.19671
▁खो	-9.19792
वल	-9.1992
▁कट	-9.20031
▁क्षमता	-9.2004
▁दम	-9.20107
▁चरण	-9.20188
▁चाहे	-9.20276
▁ऑ	-9.20286
वाह	-9.20391
▁भविष्य	-9.20417
सि	-9.20555
▁2014	-9.2062
▁जैसा	-9.20627
वन	-9.20664
▁तलाश	-9.20705
▁सूची	-9.20722
ंध	-9.20852
▁एड	-9.20885
▁स्वयं	-9.2089
▁नदी	-9.20936
▁संजय	-9.20998
▁राहत	-9.2118
्री	-9.21307
▁पाए	-9.21313
▁तैयारी	-9.21359
▁भू	-9.21684
▁स्वीकार	-9.2175
ra	-9.21775
ण्यात	-9.21864
▁धारा	-9.21979
▁मिलता	-9.22017
▁फि	-9.22062
०	-9.22212
▁मूल	-9.22266
▁हों	-9.22267
▁सप्ताह	-9.22423
लर	-9.22481
▁समाप्त	-9.22716
▁शानदार	-9.2281
▁चाहता	-9.22863
▁टिकट	-9.22882
▁राजधानी	-9.22907
▁झा	-9.22908
▁भवन	-9.22916
▁घोषित	-9.22919
▁दि	-9.2299
▁मुद्दे	-9.23004
प्ल	-9.23087
▁योगी	-9.23092
▁मूल्य	-9.23174
-20	-9.23279
िर	-9.2338
it	-9.23529
▁वै	-9.23648
▁चले	-9.23659
ॉल	-9.23663
ed	-9.23682
▁स्क	-9.23798
▁जिसकी	-9.23808
v	-9.23827
▁बल्लेबाज	-9.23942
▁?	-9.2398
▁मतदान	-9.23991
▁मामलों	-9.24077
▁चैनल	-9.24078
▁कब	-9.24124
▁मं	-9.24156
टो	-9.2437
▁उसमें	-9.24413
▁विदेशी	-9.24457
▁हालत	-9.24457
▁बाबा	-9.24526
en	-9.2454
फी	-9.24622
▁चयन	-9.24695
▁बढ़ाने	-9.24712
ढ़	-9.24722
▁सत्र	-9.24818
▁पहुंची	-9.24896
w	-9.2493
ाना	-9.24969
ल्ड	-9.25016
ेगा	-9.25103
ंप	-9.25126
▁मात्र	-9.25299
एच	-9.25422
50	-9.25515
▁31	-9.25559
बार	-9.25666
िता	-9.25692
▁तमाम	-9.25759
▁जरूर	-9.25768
▁करनी	-9.25828
▁अभि	-9.25956
द्र	-9.26093
पत्र	-9.26142
▁ठाकुर	-9.26158
▁गृह	-9.26188
▁लाइन	-9.26348
दि	-9.26395
▁उत्पादन	-9.26457
▁मुलाकात	-9.26459
▁एक्स	-9.26479
▁>	-9.26618
▁विराट	-9.26661
▁ज़	-9.26667
▁हल	-9.26818
▁#	-9.26842
ौर	-9.26845
ल्ला	-9.26894
▁स्थापित	-9.27064
दे	-9.27101
▁पाने	-9.27102
▁0	-9.27322
एक	-9.27324
▁ऐ	-9.27334
▁ऑनलाइन	-9.27369
▁बहन	-9.27447
▁Hindi	-9.27469
▁वेबसाइट	-9.27469
▁रखते	-9.27629
▁देती	-9.27647
▁रिकॉर्ड	-9.27672
ियत	-9.27754
▁बनाकर	-9.27755
▁इतनी	-9.27759
▁पैर	-9.27761
गार	-9.27769
▁आनंद	-9.27778
णि	-9.27834
▁शांति	-9.27923
▁गिरावट	-9.27977
▁बंगाल	-9.27978
▁2016	-9.27996
▁रू	-9.28065
▁उतार	-9.28139
ri	-9.28258
▁in	-9.28437
▁राजा	-9.28548
▁ज्ञान	-9.28565
ानी	-9.28592
▁बैठे	-9.2873
▁रिलीज	-9.28759
था	-9.2876
▁समान	-9.28782
▁रखी	-9.28798
▁जाति	-9.28881
▁इनके	-9.28906
▁पूछा	-9.28988
▁चू	-9.29168
▁सदस्यों	-9.29275
ुर	-9.29561
▁कॉ	-9.29683
▁G	-9.29697
▁संघर्ष	-9.29733
▁बचा	-9.29993
भर	-9.30076
▁गैर	-9.30166
▁वर्तमान	-9.30247
▁नोट	-9.30268
▁उतर	-9.30338
▁भ्रष्टाचार	-9.30351
▁परि	-9.30369
▁सीटों	-9.30378
अलग	-9.30397
ोज	-9.30427
ब्र	-9.30528
▁बनाई	-9.30537
▁त्या	-9.30625
▁मिलकर	-9.30806
▁चाहती	-9.30844
▁फायदा	-9.30875
▁मॉडल	-9.30875
ाबाद	-9.30896
जू	-9.31087
ुआ	-9.31166
ुक	-9.31249
ाप	-9.31447
्फ	-9.3145
▁भुगतान	-9.31506
▁डिग्री	-9.31507
▁चै	-9.31557
▁ख़	-9.31566
▁पाल	-9.31622
▁PM	-9.31748
णार	-9.3186
स्ट्र	-9.31933
▁रस	-9.31971
▁मंच	-9.32161
▁आपने	-9.32234
▁विकल्प	-9.32249
▁टे	-9.32259
▁गुप्ता	-9.32369
▁टूट	-9.32375
▁अमर	-9.32641
▁चे	-9.32737
▁कार्यकर्ताओं	-9.32739
गल	-9.32836
हन	-9.32996
▁K	-9.33071
▁तोड़	-9.33079
ज़ा	-9.33172
▁गोल	-9.33175
▁बातें	-9.33195
ोल	-9.33499
जीत	-9.33519
▁पुरस्कार	-9.33642
▁हाई	-9.33654
ियम	-9.33698
▁भीतर	-9.33732
▁N	-9.33822
ियर	-9.3384
▁सुना	-9.33873
▁सालों	-9.33893
म्	-9.3422
O	-9.34256
▁चंद्र	-9.34273
▁संभव	-9.34401
▁देंगे	-9.3447
▁संस्था	-9.34498
▁स्वागत	-9.34515
पत	-9.34561
▁भेजा	-9.34575
▁री	-9.3465
▁वर्षों	-9.34725
▁उनको	-9.34749
▁बाकी	-9.34871
▁घट	-9.34905
▁चौधरी	-9.34946
▁युद्ध	-9.34952
्क	-9.3496
▁नियम	-9.35035
▁मौजूदा	-9.35051
▁मतलब	-9.35056
्यु	-9.35084
▁मानव	-9.35142
▁दबाव	-9.35145
▁हमारा	-9.3517
्न	-9.35186
▁रैली	-9.35357
र्द	-9.35359
▁गेंद	-9.3537
▁अवधि	-9.35504
्ल	-9.35536
ष्ट	-9.3556
▁कला	-9.35603
▁पैसा	-9.35663
कारी	-9.36058
▁न्याय	-9.36067
जो	-9.36092
िक्स	-9.36155
ic	-9.36174
▁केजरीवाल	-9.36267
▁चुनौती	-9.36267
▁फै	-9.36318
▁दाम	-9.364
L	-9.36467
▁तुलना	-9.366
▁आवश्यकता	-9.36676
वास	-9.36677
काल	-9.36697
▁एच	-9.36712
▁शीर्ष	-9.36712
on	-9.36715
▁लेना	-9.36717
▁तीसरे	-9.36718
▁खड़े	-9.36878
▁कड़ी	-9.37004
▁फसल	-9.37049
am	-9.37135
▁संबोधित	-9.37157
ल्या	-9.37195
▁सीबीआई	-9.37269
▁बच	-9.37408
▁सवार	-9.37424
चर	-9.37433
स्‍	-9.37633
▁रै	-9.37717
▁p	-9.3773
यो	-9.37764
ष्	-9.37873
▁एयर	-9.3828
▁सहायता	-9.38281
▁पटेल	-9.38292
▁चंद	-9.38311
▁खोल	-9.38356
▁खूब	-9.38395
▁गाय	-9.38495
▁अवैध	-9.38508
▁पश्चिम	-9.38536
▁छोटी	-9.38591
▁क्ल	-9.38676
▁फिल्मों	-9.3871
▁गौरतलब	-9.38735
▁पुल	-9.38812
▁महसूस	-9.38848
्ट	-9.38946
िप	-9.38973
सू	-9.39006
▁पेट्रोल	-9.39067
▁दोस्तों	-9.39092
वादी	-9.39108
▁1.	-9.39154
पति	-9.39182
▁News	-9.3919
▁इंग्लैंड	-9.3919
▁वर्षीय	-9.39267
▁लंबे	-9.39304
▁डॉक्टर	-9.39348
▁पकड़	-9.39366
▁कविता	-9.39423
▁धोनी	-9.39467
▁बर	-9.39613
▁वेतन	-9.39615
▁आतंकी	-9.39808
▁क़	-9.39809
▁पेट	-9.3988
▁मात्रा	-9.39932
▁स्प	-9.39982
▁निदेशक	-9.39992
ch	-9.40035
ल्स	-9.40238
चार	-9.40253
ाक	-9.40268
ठी	-9.40293
▁मालिक	-9.40334
▁जिंदगी	-9.40337
▁c	-9.40342
धार	-9.40418
▁शब्द	-9.40443
मैं	-9.40586
▁ऑफिस	-9.40614
रत	-9.40667
▁१	-9.40676
▁विस्तार	-9.40684
डि	-9.40691
▁सच	-9.40694
▁कर्ज	-9.40743
▁टैक्स	-9.40817
ेन्द्र	-9.4087
शि	-9.40877
▁बीते	-9.409
▁सत्य	-9.40917
▁दूध	-9.40944
▁आये	-9.4116
▁कमजोर	-9.41268
▁समाचार	-9.41391
▁जोर	-9.41401
▁आसान	-9.41429
▁L	-9.41521
▁लॉ	-9.41611
▁अशोक	-9.41615
▁दर्द	-9.41667
निक	-9.41691
▁29	-9.41786
ेश्वर	-9.41861
▁वायरल	-9.41968
▁संविधान	-9.42201
▁बाइक	-9.42219
▁गीत	-9.42251
▁सारी	-9.42443
▁मू	-9.4249
्ज	-9.42526
▁परिजनों	-9.42624
▁आउट	-9.4265
’’	-9.4268
ंगे	-9.42717
▁गैस	-9.4277
▁अचानक	-9.42791
▁F	-9.42818
▁हालात	-9.42889
▁गठबंधन	-9.42909
▁छत्तीसगढ़	-9.42909
▁स्थल	-9.42917
▁60	-9.42982
▁आवाज	-9.42992
▁साहित्य	-9.43028
ad	-9.43045
िम	-9.43064
▁जमकर	-9.43118
▁प्रवक्ता	-9.43146
▁लाने	-9.43299
चन	-9.4355
्रा	-9.43619
▁हिंसा	-9.43743
▁कमेटी	-9.43744
▁सूर्य	-9.43748
▁जुड़ी	-9.43844
▁दुकान	-9.4387
तु	-9.44005
ठा	-9.44044
▁मर	-9.44208
▁सार्वजनिक	-9.4422
▁अंतरराष्ट्रीय	-9.44222
प्प	-9.44273
▁फे	-9.44295
ंगा	-9.44302
▁गोली	-9.44355
्‍या	-9.44389
ल्ट	-9.44392
▁नागरिक	-9.44444
न्ह	-9.44509
▁ऑस्ट्रेलिया	-9.44581
▁केन्द्र	-9.44675
▁संपर्क	-9.44701
▁तैनात	-9.44703
▁पुराने	-9.4472
वां	-9.44725
▁अपील	-9.44837
▁पड़ी	-9.4495
▁परियोजना	-9.45007
▁थाने	-9.45023
ल्ल	-9.45169
▁विपक्ष	-9.45181
▁प्रबंधन	-9.45242
▁किताब	-9.45381
िव	-9.45432
▁तुरंत	-9.45549
▁प्रतियोगिता	-9.45549
▁फूल	-9.45713
धि	-9.4578
▁खाना	-9.45847
वत	-9.45851
▁मंडल	-9.45854
▁पुरुष	-9.45859
ॉन	-9.45882
▁चली	-9.45936
▁विद्यालय	-9.45987
▁युवाओं	-9.46017
▁प्रत्येक	-9.46036
N	-9.46052
▁संपत्ति	-9.46159
▁पदों	-9.46246
▁अली	-9.46309
स्व	-9.46476
▁कस	-9.46534
▁आखिर	-9.46601
▁समुदाय	-9.46649
▁शिकार	-9.46852
▁दर्शन	-9.46913
▁आवश्यक	-9.47057
▁बिक्री	-9.47147
▁आवास	-9.47208
▁शिक्षक	-9.47216
▁लेख	-9.47282
▁रखे	-9.47366
▁ग्रुप	-9.47389
▁चेहरे	-9.47394
▁पड़े	-9.47399
▁शे	-9.47423
▁डो	-9.47435
▁सम्मेलन	-9.47513
▁प्रश्न	-9.47514
et	-9.47715
▁सुरक्षित	-9.47761
▁प्रेस	-9.47798
▁पाई	-9.47806
▁ईरान	-9.47881
▁प्रथम	-9.47887
▁’	-9.47945
▁खड़ा	-9.48003
▁सत	-9.48027
▁अनिल	-9.48065
न्त	-9.48133
▁जैन	-9.48146
▁बोले	-9.48208
ेंस	-9.48297
▁हटा	-9.48481
▁प्रा	-9.48496
खी	-9.48666
दो	-9.48667
▁मिलेगी	-9.48747
▁दवा	-9.48768
▁संगीत	-9.48803
▁इन्हें	-9.48887
▁आखिरी	-9.48901
▁हेतु	-9.48911
▁स्कूलों	-9.48917
▁इस्लाम	-9.49003
्वा	-9.49005
ेलू	-9.49019
▁गंगा	-9.49067
▁भीड़	-9.49098
▁रखना	-9.49107
▁अनुमति	-9.49138
ैन	-9.492
ियाँ	-9.49201
▁रोजगार	-9.49273
▁सौंप	-9.49275
▁मोहम्मद	-9.49327
▁विवाह	-9.4933
▁किलोमीटर	-9.49391
▁आधारित	-9.49597
▁जोड़	-9.49631
▁दोपहर	-9.49644
▁शोध	-9.49671
▁उनमें	-9.49673
ावर	-9.4968
ंडी	-9.4981
▁कर्म	-9.49844
▁सामान	-9.49876
▁हिंदू	-9.49897
▁मशीन	-9.49899
▁टो	-9.4992
▁आरोपियों	-9.49975
▁फेसबुक	-9.50024
▁परिसर	-9.50053
▁अक्सर	-9.50163
▁छूट	-9.50185
▁जिन्हें	-9.50279
▁रोज	-9.5032
िये	-9.50381
▁पीड़ित	-9.50397
▁संकेत	-9.50407
▁आसपास	-9.50412
▁शुभ	-9.5046
▁गति	-9.50528
th	-9.50533
▁अर्थ	-9.50568
▁होटल	-9.50571
▁अम	-9.50608
▁चाह	-9.5061
सिंह	-9.50615
श्	-9.50637
▁मीटर	-9.50696
यन	-9.5084
▁J	-9.50874
▁प्रभारी	-9.50891
▁जिन्होंने	-9.50918
जल	-9.50922
▁खोज	-9.5097
▁खाते	-9.5121
▁चोट	-9.51278
▁प्रमाण	-9.51304
▁आहेत	-9.51326
▁चीनी	-9.51335
▁ट्रंप	-9.5144
19	-9.51528
▁रहेगी	-9.51768
ाइल	-9.51815
▁कर्नाटक	-9.5182
le	-9.51847
▁नेशनल	-9.51956
▁इतन	-9.52051
▁करार	-9.52121
▁रहेंगे	-9.5214
▁संस्थान	-9.52353
ाह	-9.52374
▁सलाह	-9.52381
▁सेक्टर	-9.52465
▁कार्यकर्ता	-9.52571
▁लिख	-9.52598
▁धीरे	-9.52668
▁कृष्ण	-9.52694
▁चोरी	-9.52714
▁नीतीश	-9.52731
▁इंडियन	-9.52731
▁प्रियंका	-9.52731
▁हाउस	-9.52741
▁जिनमें	-9.52744
▁उपाय	-9.52855
▁2015	-9.52888
ेक्ट	-9.52968
-1	-9.53017
▁पहन	-9.53073
▁अखबार	-9.53123
▁मेडिकल	-9.53123
▁शिमला	-9.53124
▁दलों	-9.53177
▁प्लान	-9.53255
▁नज़र	-9.53264
▁भोपाल	-9.53264
▁खुलासा	-9.53283
▁फाइनल	-9.53386
खे	-9.53437
▁लागत	-9.53469
▁एजेंसी	-9.53523
▁जाये	-9.53701
▁हाथों	-9.53724
▁घाट	-9.53728
▁दोस्त	-9.53755
▁खंड	-9.53783
इन	-9.53794
ाला	-9.53816
▁मित्र	-9.5382
▁रोहित	-9.53837
▁लगने	-9.53847
▁आस	-9.53858
▁अंतर	-9.53903
निस	-9.53987
▁मौ	-9.5418
मि	-9.54217
ीं	-9.54257
▁I	-9.54281
▁सीधे	-9.54311
▁बांध	-9.54358
▁शहीद	-9.54445
▁जायेगा	-9.54486
▁बह	-9.54678
]	-9.5471
▁विज्ञान	-9.54844
▁भले	-9.54911
▁कल्याण	-9.54923
▁35	-9.54948
▁मिलती	-9.54982
▁मानना	-9.55091
▁लगाई	-9.55182
▁बरामद	-9.55244
▁स्‍	-9.55329
▁हवा	-9.55347
▁चालक	-9.55389
▁गईं	-9.55451
▁जग	-9.55499
▁स्वामी	-9.55546
न्	-9.55584
▁परेशानी	-9.55644
▁धार्मिक	-9.55647
▁संबंधी	-9.55821
मार	-9.55822
▁काल	-9.55897
▁पत्रकारों	-9.55955
▁गाड़ी	-9.5599
ल्प	-9.56159
▁आकर	-9.56304
▁अध्ययन	-9.56321
▁सफाई	-9.56349
▁अजय	-9.56416
▁सहायक	-9.56457
▁चलने	-9.5648
sh	-9.56524
त्य	-9.56531
▁बेच	-9.5657
▁W	-9.56805
▁सपा	-9.56808
is	-9.56895
▁वकील	-9.57005
▁चुन	-9.57042
as	-9.57043
▁पूछ	-9.57075
▁अखिलेश	-9.57135
▁माहौल	-9.57284
▁किरदार	-9.57419
▁अंदाज	-9.57711
▁जल्दी	-9.57811
▁नियंत्रण	-9.57822
▁संभाल	-9.57829
▁निभा	-9.57869
हरा	-9.57881
▁बजाय	-9.57914
▁रणनीति	-9.5796
▁गुजर	-9.57963
▁2.	-9.57979
▁जवान	-9.5801
▁सोने	-9.58035
ांनी	-9.58118
▁बीमारी	-9.58128
▁बैंकों	-9.58169
▁लूट	-9.58237
▁रूस	-9.58254
▁मकान	-9.58378
▁गर्म	-9.5839
▁प्रकाशित	-9.58421
अप	-9.58498
▁अंग	-9.58516
गंज	-9.58518
ॉट	-9.58729
हो	-9.58952
▁फो	-9.59003
‍	-9.59057
▁चंडीगढ़	-9.59067
▁निर्धारित	-9.59067
▁दशक	-9.59071
▁भु	-9.59113
▁भूल	-9.59332
▁इंसान	-9.59495
▁नोटिस	-9.59512
▁दौरे	-9.59541
दु	-9.59562
▁व्यक्त	-9.59607
▁दाखिल	-9.59625
▁आगामी	-9.59626
▁रखें	-9.59682
▁मृतक	-9.59704
▁लड़कियों	-9.59746
▁उठाया	-9.59748
तन	-9.59797
▁मानसिक	-9.59906
▁जनरल	-9.59908
▁सुंदर	-9.59923
▁लड़ाई	-9.59965
▁संस्कृति	-9.60016
▁हादसे	-9.60046
▁रास्ते	-9.60046
▁संकट	-9.60049
▁छि	-9.60114
णे	-9.60125
▁खाली	-9.60167
▁हिन्दी	-9.60187
▁ग्रामीणों	-9.60196
▁पल	-9.6031
▁70	-9.60369
ss	-9.60507
▁इंतजार	-9.6061
योग	-9.60699
स्‍ट	-9.60755
लिया	-9.60777
ीम	-9.60841
▁पूछताछ	-9.60893
▁झूठ	-9.60894
्ह	-9.60905
▁तनाव	-9.60906
▁ऊर्जा	-9.61177
▁तारीख	-9.61182
▁जिम्मेदारी	-9.6122
▁विरोधी	-9.61238
▁बद	-9.61238
▁देखें	-9.61277
▁मारे	-9.61294
▁कॉल	-9.61315
फे	-9.61433
▁किशोर	-9.6148
▁बुला	-9.61542
▁उद्देश्य	-9.61604
▁समाधान	-9.61604
▁Home	-9.61747
▁चौहान	-9.61755
▁संदेश	-9.61811
▁कार्यों	-9.61898
▁तु	-9.61939
जर	-9.61998
तो	-9.62004
▁कथित	-9.62034
वीर	-9.62056
र्त	-9.6219
▁धु	-9.62201
▁कोच	-9.62243
त्ता	-9.62356
▁मंडी	-9.6241
▁परिवर्तन	-9.62464
▁जंगल	-9.62502
▁वनडे	-9.62637
▁यांनी	-9.62767
▁बचाने	-9.62771
▁दुख	-9.62831
▁E	-9.62912
▁तीनों	-9.62985
▁फ्ल	-9.62996
▁नर	-9.63054
घर	-9.6306
▁श्रीलंका	-9.63187
▁सुनिश्चित	-9.63187
▁सीख	-9.63276
▁दौड़	-9.63347
▁आसानी	-9.63401
ंदा	-9.63422
▁थोड़ा	-9.63477
▁अनुमान	-9.63578
▁पड़ेगा	-9.63692
▁मुक्त	-9.63722
ोप	-9.63784
G	-9.63801
ारी	-9.6382
▁कमरे	-9.63973
▁बढ़ती	-9.6414
ाइट	-9.64173
▁आरक्षण	-9.64215
्ब	-9.64223
एँ	-9.64243
ग्	-9.64299
▁मल	-9.64379
15	-9.64381
j	-9.64453
▁महिलाएं	-9.64476
▁समझा	-9.64487
▁सका	-9.64545
▁रुक	-9.64557
्त	-9.6458
▁शक	-9.64627
▁मार्केट	-9.64812
▁जिनक	-9.65104
▁लगाकर	-9.65126
▁संग	-9.6521
▁रास्ता	-9.65255
कश्मीर	-9.65292
▁राह	-9.65374
िनी	-9.65387
▁योजनाओं	-9.65513
क्टर	-9.65607
▁माँ	-9.65646
▁मंजूरी	-9.65757
▁छात्रा	-9.65819
▁कक्षा	-9.65861
▁बाग	-9.65969
▁विकसित	-9.65981
बि	-9.66001
▁उधर	-9.66014
हू	-9.66036
▁आयु	-9.661
▁सुपर	-9.66154
▁रोकने	-9.66164
हु	-9.66203
▁मुंह	-9.66282
ांत	-9.66364
▁पढ़ाई	-9.66407
▁भोजन	-9.66415
▁निशाना	-9.66525
बु	-9.66579
▁दिये	-9.66657
▁सुर	-9.66684
▁खिलाड़ियों	-9.6673
▁हिसाब	-9.6673
▁अर्थव्यवस्था	-9.66732
▁निर्	-9.66797
भी	-9.66821
ेगी	-9.66934
न्ना	-9.66991
पट	-9.66993
में	-9.6709
▁प्रस्तुत	-9.67108
▁झारखंड	-9.67181
ur	-9.67268
com	-9.67282
▁ट्विटर	-9.67333
▁पेड़	-9.67392
▁चु	-9.67601
▁इलाकों	-9.67635
ट्र	-9.67664
▁प्रशिक्षण	-9.67787
स्टर	-9.67881
▁शहरों	-9.67924
▁चुनावी	-9.67941
—	-9.68013
x	-9.68024
ंगल	-9.6805
▁यूनिवर्सिटी	-9.68093
ोन	-9.68122
▁पाकिस्तानी	-9.68151
ाइज	-9.6816
H	-9.68167
▁सम्मानित	-9.68272
▁न्यूज	-9.68394
▁पालन	-9.68395
▁स्थापना	-9.68396
▁हाईकोर्ट	-9.68396
▁टू	-9.68398
▁ज्यादातर	-9.68399
▁वर्मा	-9.68403
▁एफ	-9.68511
ज्ज	-9.68521
▁दिखाया	-9.68524
ीत	-9.68596
▁चढ़	-9.68621
ध्य	-9.68668
ूं	-9.68668
▁बांग्लादेश	-9.68702
▁मजबूर	-9.68702
▁इंटरनेट	-9.68703
▁जापान	-9.68745
10	-9.68896
▁कितना	-9.68903
▁गरीब	-9.68911
ेयर	-9.69028
िय	-9.69109
▁लॉन्च	-9.69163
▁रहना	-9.69195
U	-9.69246
▁पटना	-9.69339
▁अध्यक्षता	-9.69383
11	-9.69429
▁पहुंचने	-9.69506
▁मिलाकर	-9.69527
ील	-9.6954
▁चलता	-9.69628
▁फंड	-9.69637
करण	-9.69677
▁घेर	-9.69758
▁जिलों	-9.69785
▁राज्यपाल	-9.69816
लैंड	-9.69924
▁अफ्रीका	-9.69936
▁पर्यावरण	-9.69936
▁कोलकाता	-9.69936
▁असम	-9.69984
च्छ	-9.70072
▁टै	-9.70075
▁खुशी	-9.70082
▁खूबसूरत	-9.70092
▁राजीव	-9.70111
▁पोल	-9.70127
सो	-9.70266
युक्त	-9.70269
▁चित्र	-9.70285
▁मान्यता	-9.70409
▁टन	-9.70411
▁मध्यप्रदेश	-9.70559
▁आपूर्ति	-9.70613
▁तिवारी	-9.70715
▁उचित	-9.70748
▁हफ्ते	-9.70871
▁मेहनत	-9.70872
▁अभिनेता	-9.70874
ha	-9.70919
▁उम्मीदवारों	-9.70938
▁जज	-9.71038
▁प्राथमिक	-9.71112
▁200	-9.71124
*	-9.71132
▁रहें	-9.71195
▁मनाया	-9.71199
ुन	-9.71248
▁80	-9.71315
प्त	-9.71338
▁बच्ची	-9.71343
▁समीक्षा	-9.71343
▁पुरानी	-9.7136
▁सम्	-9.71476
▁पार्क	-9.71519
▁छा	-9.71559
F	-9.71601
▁सिस्टम	-9.71658
▁अंतर्गत	-9.7166
▁»	-9.71674
▁मोह	-9.71786
▁लोकप्रिय	-9.7182
ाइन	-9.71827
▁अंग्रेजी	-9.71831
कम	-9.71853
▁प्ले	-9.71856
▁पॉ	-9.71938
▁एसपी	-9.71978
▁उपाध्यक्ष	-9.71982
ृत	-9.72006
वर्	-9.72007
▁दीपक	-9.72031
र्ग	-9.72099
▁दलित	-9.72202
कुल	-9.72225
▁मॉ	-9.72275
ay	-9.72281
▁वर्ल्ड	-9.72291
▁शिवसेना	-9.72291
▁शुल्क	-9.72297
16	-9.723
▁आईपीएल	-9.72469
▁ऐलान	-9.7261
▁महान	-9.72613
्ति	-9.72692
▁करवाया	-9.72773
▁2013	-9.72788
फर	-9.72801
▁अथवा	-9.72929
▁समस्याओं	-9.7294
▁हां	-9.72987
नर	-9.73016
▁जिनके	-9.73053
▁अग्रवाल	-9.73088
यें	-9.73133
दास	-9.7314
▁व्यवहार	-9.73249
▁संत	-9.73267
▁बोला	-9.73273
▁बेहतरीन	-9.73301
ातील	-9.73303
ड्ड	-9.73363
▁कोरिया	-9.7338
▁महत्व	-9.73411
▁जाएं	-9.73429
मर	-9.73569
▁कहने	-9.73604
▁O	-9.73621
▁कमाई	-9.73706
▁फ़िल्म	-9.73731
▁पुस्तक	-9.73731
▁”	-9.7376
▁आतंकवाद	-9.73821
▁फ्र	-9.73858
ूंगा	-9.73938
▁सड़कों	-9.73975
लिंग	-9.74018
▁लेखक	-9.74031
▁सकें	-9.74032
▁सक्रिय	-9.74054
17	-9.74069
▁सुनील	-9.74072
झा	-9.74089
म्म	-9.74209
▁थोड़ी	-9.74216
▁शख्स	-9.74216
▁स्मार्टफोन	-9.74218
ir	-9.74268
▁नो	-9.7432
वाली	-9.74331
ंडे	-9.74354
ट्स	-9.7439
पीएस	-9.74467
▁दायर	-9.74485
मत	-9.74548
▁प्रतिबंध	-9.7464
पु	-9.74681
us	-9.7471
बाजी	-9.74714
तू	-9.74718
▁ओपन	-9.74749
▁दोषी	-9.74765
▁घुस	-9.74876
▁वापसी	-9.74894
▁औ	-9.74904
▁केरल	-9.74931
▁वार्ड	-9.7494
▁फैल	-9.74959
मुख	-9.74996
्टी	-9.74999
▁महाराज	-9.75264
क्षा	-9.75295
▁ट्रक	-9.75315
▁प्रत्याशी	-9.75356
▁गठन	-9.75356
डर	-9.75365
-2	-9.75368
▁पंच	-9.75389
▁करियर	-9.75414
वाई	-9.75512
▁मुद्दों	-9.7552
▁सेंटर	-9.75613
▁लु	-9.75668
र्प	-9.7567
▁जीतने	-9.75686
▁इच्छा	-9.75851
▁योगदान	-9.75872
▁सेवन	-9.75877
▁रवि	-9.75886
ंडर	-9.75935
▁गाने	-9.75948
▁मिलते	-9.75958
बो	-9.75968
ांना	-9.75984
▁ठंड	-9.75987
तौर	-9.76069
▁गांवों	-9.76161
▁बुरा	-9.76296
▁सिटी	-9.76342
▁हिन्दू	-9.76343
सम	-9.76353
▁होनी	-9.7647
▁धमकी	-9.76528
रूप	-9.76587
तक	-9.76591
▁डांस	-9.76593
▁भि	-9.7664
▁राव	-9.76644
ताओं	-9.76794
▁बेस	-9.76806
▁उदाहरण	-9.76841
▁कू	-9.76929
▁इन्	-9.77011
▁खेले	-9.77067
▁पीट	-9.77081
▁टेक	-9.77085
▁गुण	-9.77142
यु	-9.77143
▁वाहनों	-9.77213
▁कराई	-9.77283
▁ज़्यादा	-9.77341
▁दस्तावेज	-9.77341
25	-9.77434
▁कीमतों	-9.77446
▁देगा	-9.7749
हित	-9.77527
▁उपचार	-9.77544
▁रनों	-9.77574
▁रु	-9.7767
डो	-9.77901
el	-9.7791
श्व	-9.77985
▁मनुष्य	-9.78011
▁निर्यात	-9.78012
पल	-9.78012
▁ताकत	-9.7802
ैर	-9.7816
▁धो	-9.78248
▁व्य	-9.78292
▁कार्यवाही	-9.78349
▁नयी	-9.78402
▁पढ़े	-9.78449
▁पदक	-9.78482
▁वीर	-9.78489
▁अरविंद	-9.78523
▁देखना	-9.78651
▁वैश्विक	-9.78687
▁बीएस	-9.78705
र्श	-9.7871
▁कहां	-9.7882
▁दुर्घटना	-9.78856
ow	-9.7887
▁उक्त	-9.78891
▁ग्रे	-9.7896
▁रद्द	-9.78998
▁कालेज	-9.79019
▁बढ़ोतरी	-9.79026
▁बराबर	-9.79027
▁बनाना	-9.79051
▁मानते	-9.7906
▁लीग	-9.79199
▁m	-9.79285
▁डाय	-9.79285
▁महासचिव	-9.79537
▁फेंक	-9.79599
▁नाग	-9.79599
▁भावना	-9.79711
▁गौर	-9.79722
▁न्यू	-9.79774
▁नियमित	-9.79853
‍ि	-9.79854
▁स्कोर	-9.79867
▁उत्तराखंड	-9.79879
▁ऐतिहासिक	-9.7988
▁जीएसटी	-9.79913
▁विधि	-9.79937
▁चोर	-9.79938
▁मिश्रा	-9.79973
क्शन	-9.79997
▁सारा	-9.80009
▁छोड़कर	-9.80038
▁विज्ञापन	-9.80051
▁संशोधन	-9.80051
▁भरा	-9.80064
चि	-9.80079
▁सचिन	-9.80085
▁सीजन	-9.80219
47	-9.80373
िग	-9.80382
▁हिरासत	-9.80395
▁गणेश	-9.80395
▁काट	-9.80447
▁ति	-9.805
▁पं	-9.80507
▁प्रणाली	-9.80567
▁कैंसर	-9.80567
▁जताई	-9.80632
ाइड	-9.80669
▁जगत	-9.80775
▁भग	-9.80845
उन	-9.80846
▁प्रतिक्रिया	-9.80913
▁मुद्दा	-9.80926
▁बहु	-9.8093
पि	-9.8095
्ता	-9.81017
▁जयपुर	-9.81031
▁करवाने	-9.81163
शु	-9.81166
कर्ता	-9.81204
िकल	-9.81226
▁नेपाल	-9.81281
▁मुख	-9.81341
▁पुर	-9.81384
▁निश्चित	-9.81433
▁पहुँच	-9.81433
ाची	-9.8144
िड	-9.81538
▁पुष्टि	-9.81608
▁अक्षय	-9.81608
धन	-9.81613
▁h	-9.81649
▁नियमों	-9.81781
▁खेलने	-9.81862
▁जाहिर	-9.81904
ol	-9.81937
न्स	-9.82035
▁जिसने	-9.82197
▁स्टेट	-9.82205
▁खून	-9.82259
▁परंतु	-9.82311
ब्ब	-9.82492
▁रेप	-9.82493
नाम	-9.82538
▁दान	-9.82558
▁सख्त	-9.82659
▁बीज	-9.82662
▁जाम	-9.82796
▁चिकित्सक	-9.82836
▁पट	-9.82852
▁2012	-9.82861
▁कितने	-9.82894
▁)	-9.82985
▁प्रदूषण	-9.83012
▁अरुण	-9.83013
▁बढ़ने	-9.83055
▁महज	-9.83062
सार	-9.83139
z	-9.83189
▁लंबी	-9.83191
बद्ध	-9.83191
▁बोली	-9.83205
▁ऑटो	-9.83212
▁बातों	-9.83296
▁लालू	-9.83312
▁मजदूर	-9.83353
▁शपथ	-9.83367
क्का	-9.83385
▁शब्दों	-9.83496
▁सामग्री	-9.83544
▁घो	-9.83587
▁लड़के	-9.83648
▁गौ	-9.83684
ation	-9.83702
च्च	-9.83709
ter	-9.83715
▁विशाल	-9.83724
▁अहमद	-9.83726
▁ममता	-9.83729
▁1,	-9.83795
▁45	-9.838
गन	-9.83913
▁बढ़कर	-9.84028
▁रोल	-9.84075
▁प्रोजेक्ट	-9.84079
▁औसत	-9.84081
▁राजेश	-9.84097
साठी	-9.84186
▁तकनीक	-9.84252
▁श्रेणी	-9.84258
▁रहीं	-9.84401
पास	-9.84498
▁चेक	-9.84532
▁हुये	-9.84537
▁अर्	-9.84592
▁स्क्रीन	-9.84797
▁पत्थर	-9.84797
▁नियुक्त	-9.848
30	-9.84888
ार्थ	-9.84917
▁जला	-9.84922
▁कवि	-9.85
▁f	-9.8503
▁अकाउंट	-9.85157
▁भरोसा	-9.85158
▁पाक	-9.85168
▁32	-9.8517
18	-9.85213
ॉय	-9.85322
▁जहाँ	-9.85338
▁भाषण	-9.85347
ोट	-9.8535
▁शिविर	-9.85373
द्	-9.85417
भाषा	-9.85417
▁नये	-9.85423
▁टूर्नामेंट	-9.85519
बीर	-9.85534
िशन	-9.85635
्द	-9.85648
▁श्र	-9.85659
▁लगती	-9.85707
मिन	-9.85713
▁माने	-9.85819
99	-9.85842
▁जेटली	-9.85883
▁खाद्य	-9.85945
▁फार्म	-9.85998
▁दर्जन	-9.86014
▁अंजाम	-9.86065
▁उद्घाटन	-9.86065
▁कठिन	-9.86065
मैन	-9.86167
मल	-9.86192
st	-9.86199
▁करो	-9.8621
५	-9.86247
▁बधाई	-9.86248
▁दोबारा	-9.86248
▁साहब	-9.86249
ut	-9.86362
▁हवाई	-9.86414
▁डाला	-9.86429
यह	-9.86479
▁संगठनों	-9.86493
ैल	-9.86516
जनक	-9.86557
स्‍त	-9.86579
▁असल	-9.86611
▁क्लब	-9.86622
....	-9.86645
शील	-9.86664
ड्र	-9.86812
▁घरों	-9.86819
▁कितनी	-9.86824
▁वार्ता	-9.869
वाला	-9.86905
▁रचना	-9.86974
▁चिकित्सा	-9.86979
▁आशा	-9.87087
▁500	-9.87126
त्री	-9.87158
▁ऋण	-9.87165
▁लगाते	-9.87225
▁मनोज	-9.87328
▁प्रावधान	-9.87358
▁रक्त	-9.87385
टल	-9.87435
▁गत	-9.87444
▁स्वतंत्रता	-9.87499
▁नाही	-9.87501
▁ट्र	-9.87504
▁एक्सप्रेस	-9.87534
▁रुख	-9.87597
▁बलात्कार	-9.87719
▁दृष्टि	-9.8772
▁मुद्रा	-9.8772
▁हैदराबाद	-9.8772
▁हजारों	-9.87774
▁सकेंगे	-9.8778
▁बिग	-9.87819
हल	-9.87843
▁खर	-9.87852
▁दास	-9.88079
▁खतरा	-9.88092
▁चलाने	-9.88116
▁उत्पाद	-9.88124
un	-9.88139
▁तापमान	-9.88277
▁छोटा	-9.88277
▁पेंशन	-9.88277
लिन	-9.88294
▁दू	-9.88308
लेट	-9.88332
▁हंस	-9.88343
▁90	-9.88403
▁गेंदबाज	-9.88463
ro	-9.8847
▁विधायकों	-9.88487
▁पहल	-9.88497
▁अध	-9.88505
▁सोनिया	-9.88557
्रो	-9.88559
कृत	-9.88579
▁लाखों	-9.88594
▁दिला	-9.88595
▁चेयरमैन	-9.8865
▁ब्रिटेन	-9.8865
▁तार	-9.88669
द्व	-9.88735
▁a	-9.88792
▁सन्	-9.88869
se	-9.88921
▁पीठ	-9.88927
▁चीज	-9.88966
▁बंध	-9.8898
▁आलोचना	-9.89025
▁आशंका	-9.89025
▁फरार	-9.8903
्यो	-9.89051
▁त्रि	-9.8914
▁कमल	-9.89174
▁बताने	-9.89206
▁विद्यार्थियों	-9.89213
▁इंटर	-9.89314
▁कथा	-9.89336
्रे	-9.89389
▁अभिनेत्री	-9.89402
▁ईश्वर	-9.89402
▁आबादी	-9.89403
▁साथी	-9.89404
▁डीजल	-9.89436
▁कार्यकाल	-9.89466
दीप	-9.89499
▁एशिया	-9.89524
▁बचाव	-9.89526
me	-9.89536
▁जरिये	-9.8959
▁युवती	-9.89593
्मा	-9.89603
▁हित	-9.89618
▁फर्जी	-9.89622
▁दूरी	-9.89674
▁बिल्कुल	-9.89779
▁मृत्यु	-9.89786
▁बाढ़	-9.8984
ंचा	-9.89858
ot	-9.8986
▁गुर	-9.89888
▁मंत्र	-9.89935
▁बदलने	-9.89938
▁राजस्व	-9.90018
▁मुकाबला	-9.90031
▁नवीन	-9.90045
▁शिक्षकों	-9.90047
▁अर	-9.90073
▁टॉप	-9.90096
दल	-9.90108
▁लै	-9.90157
राव	-9.90165
000	-9.90169
▁जम	-9.90204
▁निकाला	-9.90227
▁जिम्मेदार	-9.9029
फ्ट	-9.90294
▁श्रम	-9.90358
▁कपड़े	-9.90395
▁दौरा	-9.90481
▁वर्क	-9.90709
▁एसोसिएशन	-9.9073
▁यात्रियों	-9.9073
भाव	-9.90788
▁संरक्षण	-9.90921
स्ता	-9.90954
▁हरा	-9.91062
▁उठाने	-9.91084
टिंग	-9.911
▁गेम	-9.91107
▁लिमिटेड	-9.91113
▁विरुद्ध	-9.91113
▁शूटिंग	-9.9115
▁शर्त	-9.91151
▁लोगो	-9.91158
▁अति	-9.91195
त्व	-9.91257
▁न्यायाधीश	-9.91304
▁उसको	-9.91324
▁हक	-9.91494
▁क्व	-9.91514
▁सदन	-9.91526
▁फॉर्म	-9.9155
01	-9.91577
ळी	-9.91596
▁प्रतिभा	-9.916
▁जड़	-9.91657
▁बढ़ावा	-9.91733
आप	-9.91881
▁पर्याप्त	-9.91883
▁ग्रहण	-9.91938
▁चीफ	-9.92022
▁हिस्से	-9.92071
▁जस्टिस	-9.92076
▁त्वचा	-9.92076
▁एक्ट्रेस	-9.92079
▁सीटें	-9.92133
भारत	-9.92135
▁दोष	-9.92158
ात्मक	-9.9219
▁लिस्ट	-9.92234
▁अयोध्या	-9.9227
▁ग्राहकों	-9.92276
त्या	-9.92277
▁यौन	-9.9228
▁पोलिस	-9.92296
▁निधन	-9.92313
डेंट	-9.92329
▁लगते	-9.92337
पुरा	-9.92356
▁लक्ष्मी	-9.92368
वै	-9.92401
▁सिद्ध	-9.92434
▁चेतावनी	-9.92464
▁दिमाग	-9.92465
▁सुरेश	-9.92486
ाच्या	-9.92509
▁तत्काल	-9.92541
▁ताजा	-9.9262
▁मशहूर	-9.92659
▁आत्महत्या	-9.92853
▁तिमाही	-9.92853
▁सपना	-9.92857
ळा	-9.92916
▁मिशन	-9.92982
▁खारिज	-9.93049
▁तिथि	-9.93108
▁पिछल	-9.93145
▁आना	-9.93174
धर	-9.93307
40	-9.93373
ालय	-9.93403
▁प्रसिद्ध	-9.93441
▁लोकतंत्र	-9.93449
▁U	-9.93515
▁ग्र	-9.93538
▁सऊदी	-9.93637
▁टाटा	-9.93639
▁ब्लॉग	-9.93657
V	-9.93733
▁परिवहन	-9.93834
▁नोटबंदी	-9.93842
ॉप	-9.93894
▁सन	-9.9392
ष्ठ	-9.93928
पिता	-9.93963
जीव	-9.93994
▁उल्लंघन	-9.94031
▁स्वर्ण	-9.94045
पेट	-9.94057
▁अटल	-9.94181
▁अतिथि	-9.94265
▁कैंप	-9.94276
▁3.	-9.94285
▁कानूनी	-9.94319
▁नामक	-9.94366
▁अज	-9.94375
▁ऐप	-9.94417
▁दिक्कत	-9.94427
▁शतक	-9.94464
चल	-9.94465
▁अमरीका	-9.94626
05	-9.94668
▁चाय	-9.94746
▁असे	-9.94768
दारी	-9.94815
▁पू	-9.94889
80	-9.94978
▁मूर्ति	-9.95024
▁ऊ	-9.95178
▁दिलचस्प	-9.95223
▁इंदौर	-9.95223
▁पशु	-9.95235
▁खिला	-9.95263
चित	-9.95285
▁बल्लेबाजी	-9.95299
▁विजेता	-9.95429
▁किनारे	-9.95434
▁जुड़	-9.95542
▁न्यूज़	-9.95547
▁आधुनिक	-9.95623
▁मस्जिद	-9.95623
लाइन	-9.95687
माल	-9.95726
ंठ	-9.95751
14	-9.95821
िंद	-9.95924
ौन	-9.9593
▁d	-9.96003
▁आधिकारिक	-9.96025
▁मांगी	-9.96068
भि	-9.96083
▁बढ़त	-9.96095
▁कैद	-9.96146
▁क्लिक	-9.96194
▁नेटवर्क	-9.96227
▁''	-9.96233
hi	-9.96247
▁क्लास	-9.96266
▁जू	-9.96295
▁पाते	-9.96367
▁गिरफ्तारी	-9.96376
▁खड़ी	-9.96403
▁बुरी	-9.96449
▁ट्रा	-9.96499
▁टिप्पणी	-9.96631
▁पर्यटन	-9.96632
▁अधिकांश	-9.96656
▁मुख्यालय	-9.96665
▁बॉक्स	-9.96671
मंत्री	-9.96828
▁इंडस्ट्री	-9.97037
▁व्यवसाय	-9.97037
▁तकनीकी	-9.97075
12	-9.97081
▁रकम	-9.97099
िला	-9.97241
▁दर्शकों	-9.97257
मध्ये	-9.97293
श्र	-9.9733
▁जवानों	-9.97438
▁संसाधन	-9.97445
▁मचा	-9.97483
▁निराश	-9.9749
▁समाजवादी	-9.97494
हाल	-9.97528
गांव	-9.9754
पूर	-9.9759
▁आतंकवादी	-9.97633
कू	-9.97645
▁हट	-9.97664
▁टॉ	-9.9769
▁अधीक्षक	-9.97855
▁इस्तीफा	-9.97855
▁टक्कर	-9.97855
▁महीनों	-9.97855
्‍म	-9.97928
▁चारों	-9.97937
▁विल	-9.97972
▁उड़	-9.98045
▁तस्वीरें	-9.98047
▁चेन्नई	-9.9806
▁राज्यसभा	-9.9806
ि‍	-9.98111
ग्न	-9.98182
भाग	-9.98232
▁मारपीट	-9.98266
▁टाइम	-9.983
▁आजादी	-9.98304
▁नियुक्ति	-9.98311
08	-9.98334
▁बदले	-9.98518
▁स्थानों	-9.98533
▁वर	-9.9862
▁पीने	-9.9874
▁रानी	-9.98885
▁मायावती	-9.98887
▁w	-9.98888
▁भक्त	-9.98899
ुम	-9.98907
▁उपकरण	-9.98919
टक	-9.98945
ne	-9.98962
▁खु	-9.98989
▁लुक	-9.99036
▁ब्ल	-9.99084
▁इमरान	-9.99093
▁वजन	-9.9911
▁ताल	-9.99152
▁लिंक	-9.99159
▁नाराज	-9.99183
हान	-9.9919
बंदी	-9.99214
▁रुप	-9.99301
▁मुफ्त	-9.99321
▁बांट	-9.99327
फ्र	-9.99338
श्त	-9.99381
▁मोहन	-9.99404
र्ण	-9.99443
निया	-9.99447
▁पढ़ा	-9.99464
▁आदर्श	-9.9951
▁बढ	-9.99545
द्द	-9.99562
▁हटाने	-9.99658
▁उन्‍होंने	-9.99718
िफ	-9.99772
om	-9.99806
▁लेंगे	-9.99821
योजन	-9.99883
▁आले	-9.99913
▁उल्लेखनीय	-9.99927
▁ब्लॉक	-9.99958
▁रूपये	-9.99972
चक	-10
टन	-10.0005
▁व्यापक	-10.0014
▁खींच	-10.0015
वेद	-10.0016
▁बहस	-10.0028
▁वर्ण	-10.0033
▁विधेयक	-10.0035
▁स्टेडियम	-10.0035
▁फी	-10.0035
▁दीपिका	-10.0036
▁In	-10.0041
▁4.	-10.005
▁पाठ	-10.0052
▁जाय	-10.0053
▁कहती	-10.0054
▁काले	-10.0065
▁बीमा	-10.0067
▁इनका	-10.0068
▁हड़ताल	-10.0077
▁वितरण	-10.0077
▁ढंग	-10.0077
▁उठाए	-10.0078
▁विपक्षी	-10.0081
▁सफर	-10.0087
▁देगी	-10.0089
▁भूख	-10.0093
▁पात्र	-10.0095
▁परमाणु	-10.0098
▁शुरु	-10.0099
▁जिक्र	-10.0102
▁of	-10.0104
▁हथियार	-10.0107
▁पावर	-10.0108
ोस	-10.0109
▁जीता	-10.0111
तः	-10.0112
▁इनकार	-10.0117
▁यु	-10.012
ेस्ट	-10.0124
▁आयात	-10.0132
▁मंगल	-10.0133
▁कपिल	-10.0134
▁एक्ट	-10.0138
▁निर्वाचन	-10.014
▁सुझाव	-10.014
▁समुद्र	-10.014
▁आकार	-10.0143
▁सर्विस	-10.0143
▁देखी	-10.0149
अर	-10.0151
▁होंगी	-10.0152
▁आईटी	-10.0153
भूत	-10.0162
▁आराम	-10.0165
▁शी	-10.0175
ct	-10.0176
▁भरे	-10.0178
▁बच्चा	-10.0183
▁ब्याज	-10.0184
ियल	-10.0184
दम	-10.0203
▁संतोष	-10.0204
ंव	-10.0206
07	-10.0223
▁कंपनियां	-10.0226
▁रमेश	-10.0226
▁वहाँ	-10.0226
▁शांत	-10.0227
▁पीड़िता	-10.0227
▁गेट	-10.0229
▁जुड़ा	-10.0239
▁घटनाओं	-10.0239
▁गलती	-10.0244
▁फ्रांस	-10.0247
▁जै	-10.0248
▁पुणे	-10.0249
वेश	-10.025
▁अदा	-10.0257
▁to	-10.0261
ऑ	-10.0264
▁छु	-10.0279
ख़	-10.0285
रिक	-10.0287
▁यूनियन	-10.0291
▁डूब	-10.0292
▁नारायण	-10.0294
K	-10.0307
▁२	-10.0309
▁मोर्चा	-10.0312
▁लंदन	-10.0312
बाद	-10.0317
एमसी	-10.0317
▁सहमति	-10.0321
▁डेटा	-10.0324
▁शाखा	-10.0328
▁किलो	-10.0333
▁मनो	-10.0333
▁खिताब	-10.0334
▁बनाये	-10.0337
▁मेट्रो	-10.0341
▁फ्री	-10.0346
▁वास्तव	-10.0347
▁जानने	-10.0351
▁प्राइवेट	-10.0355
ुद्दीन	-10.0356
▁आतंकियों	-10.036
▁शेर	-10.0362
▁33	-10.037
▁खबरें	-10.0371
▁दिग्गज	-10.0377
▁हद	-10.0377
▁आयुक्त	-10.0378
▁the	-10.0379
▁खुला	-10.038
▁रेट	-10.0386
▁जोशी	-10.0387
▁कौ	-10.0398
▁सिविल	-10.0399
▁इकाई	-10.0399
▁मिस	-10.0399
▁प्रताप	-10.0399
वंश	-10.0401
▁2011	-10.0403
▁लिखे	-10.0418
▁b	-10.0421
▁पड	-10.0425
▁मास्टर	-10.0426
ment	-10.0427
la	-10.0431
▁राकेश	-10.0434
▁प्री	-10.0436
▁रेड	-10.0437
्‍स	-10.044
21	-10.0441
▁सक्षम	-10.0443
र्व	-10.0447
▁वास्तविक	-10.0451
▁संस्कार	-10.0464
▁खरीदने	-10.0468
पूर्व	-10.0471
वाने	-10.0478
हरी	-10.0482
▁युग	-10.0484
▁गूगल	-10.0486
▁खेला	-10.0489
▁मधु	-10.0491
▁समा	-10.0492
▁लाया	-10.0493
▁औद्योगिक	-10.0508
▁सुभाष	-10.0508
▁नरेन्द्र	-10.051
▁लिखी	-10.0512
शो	-10.0514
▁मुसलमानों	-10.0524
▁36	-10.0527
श्री	-10.0528
▁प्राकृतिक	-10.053
▁तरीका	-10.0531
▁परीक्षण	-10.0531
▁आदित्यनाथ	-10.0531
▁व्रत	-10.0531
▁छठ	-10.0534
▁तारीफ	-10.0537
▁ज्व	-10.0551
▁लीटर	-10.057
▁संदर्भ	-10.0571
▁घूम	-10.0577
▁खुले	-10.0581
▁5.	-10.0587
▁नै	-10.0588
▁समझौते	-10.0597
▁अकेले	-10.0597
जु	-10.0597
्वे	-10.0599
▁बताई	-10.0601
ॉक	-10.0603
▁यात्री	-10.0613
▁अंतर्राष्ट्रीय	-10.0619
बिल	-10.0621
▁बज	-10.0621
लू	-10.0626
▁बम	-10.0629
▁कौर	-10.0631
▁बसपा	-10.0641
▁मनीष	-10.0643
▁बीमार	-10.0649
li	-10.0663
▁गुणवत्ता	-10.0664
▁सिन्हा	-10.0664
▁भट्ट	-10.0664
शर	-10.0666
▁जोड़ी	-10.0667
जब	-10.0669
▁तट	-10.0682
वंत	-10.0688
▁सुनाई	-10.0692
vi	-10.0694
▁आइ	-10.0695
▁टि	-10.0698
▁जानी	-10.0699
रस	-10.0701
▁मोटर	-10.0702
▁मार्क	-10.0707
ऐ	-10.0708
▁अनिवार्य	-10.0709
▁उड़ान	-10.0715
▁एप	-10.073
वानी	-10.0731
▁अधिनियम	-10.0731
▁गौरव	-10.0731
▁तलाक	-10.0735
▁रेखा	-10.0739
▁बुलाया	-10.074
▁उभर	-10.0742
▁यांच्या	-10.0755
▁सेहत	-10.076
▁ड्रा	-10.076
▁नागरिकता	-10.0768
▁मारने	-10.0773
▁2010	-10.0781
ुष	-10.0782
▁re	-10.0783
ैं	-10.0795
सूर	-10.0797
▁हरि	-10.0797
▁अमिताभ	-10.0799
कांत	-10.0802
▁पेपर	-10.081
▁जस	-10.0812
90	-10.0814
▁पृथ्वी	-10.0822
▁आत्म	-10.0824
▁निकट	-10.0834
क्त	-10.0836
▁साइट	-10.0845
▁रिजर्व	-10.0845
▁संपादक	-10.0845
▁स्वरूप	-10.0847
▁क्यू	-10.0847
▁रच	-10.0856
▁गुना	-10.0863
▁आला	-10.0865
▁इसीलिए	-10.0868
▁जितना	-10.0868
वासियों	-10.087
▁आंखों	-10.0876
98	-10.0877
नु	-10.0879
▁भरी	-10.0884
▁कलेक्टर	-10.0891
▁कब्जा	-10.0891
▁खबरों	-10.0892
▁पढ़ने	-10.0895
▁मच	-10.09
रानी	-10.0902
▁खेती	-10.0902
▁पौ	-10.0912
▁मुकदमा	-10.0913
▁पिछड़	-10.0914
कर्ताओं	-10.0917
अगली	-10.0926
ौल	-10.0936
▁न्यूजीलैंड	-10.0936
▁पूंजी	-10.0937
▁समक्ष	-10.0945
▁सोना	-10.0946
ांच्या	-10.0949
06	-10.0952
▁सांस	-10.0956
▁प्रतिनिधि	-10.0957
▁हनुमान	-10.0959
▁सम्बन्ध	-10.096
▁सां	-10.0964
▁त्याग	-10.0967
▁कंप्यूटर	-10.0983
▁जबरदस्त	-10.0983
▁पर्यटक	-10.0983
▁हस्त	-10.0983
▁2020	-10.0984
il	-10.0984
सह	-10.1002
▁जीव	-10.1002
▁डाउनलोड	-10.1006
▁पंडित	-10.1006
▁डेढ़	-10.101
▁साझा	-10.1012
एंगे	-10.1015
▁पश्चिमी	-10.1018
▁सागर	-10.1021
▁कैबिनेट	-10.1029
▁विद्या	-10.1029
▁राजकुमार	-10.1032
▁2009	-10.1034
▁शेख	-10.1034
▁लड़ने	-10.1038
▁स्वस्थ	-10.1042
▁गर्मी	-10.1043
▁पार्षद	-10.1052
▁राजकीय	-10.1052
▁दंग	-10.1065
▁रावत	-10.1069
घाट	-10.107
वो	-10.1075
▁नजदीक	-10.1075
▁सैकड़ों	-10.1075
▁डायरेक्टर	-10.1076
▁निर्भर	-10.1077
ंदे	-10.1077
▁बनकर	-10.1082
▁सिख	-10.1097
▁आजकल	-10.1102
ाचे	-10.1103
▁चमक	-10.1105
▁झेल	-10.1108
▁छवि	-10.1108
▁नागरिकों	-10.1111
बंध	-10.1119
▁घोटाले	-10.1122
▁वारदात	-10.1122
▁तथ्य	-10.1122
▁कौशल	-10.1122
धू	-10.1126
71	-10.1128
▁प्रकरण	-10.113
▁आएगा	-10.1135
टू	-10.1136
ेटर	-10.114
-3	-10.1141
▁नक्सल	-10.1141
▁बालों	-10.1143
▁साध	-10.1145
▁लेता	-10.1146
१	-10.1147
शिप	-10.1163
▁निर्माता	-10.1164
▁दत्त	-10.1164
▁मृत	-10.1166
▁गिरा	-10.1167
▁झटका	-10.1169
▁परन्तु	-10.1169
▁मनोहर	-10.1172
व्या	-10.1173
▁परिवारों	-10.1176
ul	-10.1182
▁76	-10.1184
▁दबा	-10.1185
▁डिजिटल	-10.1193
▁चौथे	-10.1193
▁300	-10.1194
▁लव	-10.1209
▁धारण	-10.1212
▁क्षेत्रीय	-10.1216
▁कटौती	-10.1216
▁लंड	-10.1228
▁बेचने	-10.1228
वाले	-10.1231
▁दिखाने	-10.1231
वाड़	-10.1235
▁परंपरा	-10.124
▁शुद्ध	-10.1241
▁सूत्र	-10.1254
इक	-10.1254
▁सकारात्मक	-10.1264
▁लाइफ	-10.1264
▁बदला	-10.1268
di	-10.128
▁शहरी	-10.1281
▁अंडर	-10.1281
▁उतन	-10.1284
▁इंदिरा	-10.1288
▁शारीरिक	-10.1288
▁साढ़े	-10.1288
शांत	-10.1288
▁तल	-10.1293
▁साम	-10.1298
60	-10.1304
ab	-10.1309
▁आंकड़ों	-10.1312
▁इसको	-10.1316
▁ग्रह	-10.1318
▁बॉस	-10.1333
▁गर्भ	-10.1335
▁तमिलनाडु	-10.1336
▁मुलायम	-10.1336
▁वातावरण	-10.1336
▁उत्पन्न	-10.1336
▁चावल	-10.1342
र्च	-10.1342
ज़ी	-10.1346
▁पह	-10.1353
पू	-10.1355
▁शंकर	-10.1359
▁सर्वोच्च	-10.1359
▁सिम	-10.136
▁पेज	-10.1361
पार	-10.1361
▁चुने	-10.1365
▁निशान	-10.1367
▁34	-10.1368
▁सिं	-10.1368
▁कैमरा	-10.1373
▁मिळ	-10.138
▁ढा	-10.1383
क्ट	-10.1386
▁स्मृति	-10.1387
हीन	-10.1399
▁अपर	-10.1403
▁ऑफर	-10.1404
▁गेंदों	-10.1407
▁डिजाइन	-10.1408
▁विद्युत	-10.1408
डब्ल्यू	-10.1408
▁उपायुक्त	-10.1408
▁फांसी	-10.1408
▁दैनिक	-10.1408
२	-10.1411
▁गुल	-10.1414
▁बच्चन	-10.1432
▁प्रतिमा	-10.1433
har	-10.1435
▁योग्य	-10.1436
▁माइ	-10.144
▁नवाज	-10.1442
▁क्रम	-10.1446
▁शिवराज	-10.145
▁कॉम	-10.1453
▁निकले	-10.1454
▁सांस्कृतिक	-10.1456
▁l	-10.1459
▁पाएंगे	-10.1467
▁वैज्ञानिक	-10.1474
▁संचालन	-10.148
▁पवार	-10.1483
▁पर्व	-10.1484
पाद	-10.1486
कै	-10.1489
22	-10.15
▁उत्पादों	-10.1503
▁संकल्प	-10.1505
▁सीनियर	-10.1505
▁महेंद्र	-10.1509
▁सल	-10.1509
क्‍त	-10.1513
75	-10.1517
▁घाटी	-10.1523
▁वस्तु	-10.1524
और	-10.1524
ंदी	-10.1526
▁इलाहाबाद	-10.1529
स्ती	-10.1529
95	-10.153
▁गोवा	-10.1531
▁स्त्री	-10.1531
ent	-10.1534
▁टिक	-10.1536
▁तू	-10.1541
▁सीरिया	-10.1546
।”	-10.1547
▁धर	-10.1548
▁सीमित	-10.1554
थि	-10.1558
▁भरने	-10.1561
▁बेटा	-10.1578
▁नींद	-10.1579
▁कायम	-10.1582
▁सकी	-10.1584
op	-10.159
▁मैन	-10.1591
्चर	-10.1598
▁चुना	-10.1602
▁चाहिये	-10.1604
▁ब्रेक	-10.1609
▁उत्साह	-10.1618
▁लोन	-10.1618
70	-10.1619
▁विधान	-10.1619
▁आएंगे	-10.1624
▁तत्व	-10.1626
▁न्यूनतम	-10.1627
▁चेहरा	-10.1629
यल	-10.1631
▁ब्रांड	-10.1632
▁आधा	-10.1632
दूसरे	-10.1633
▁फीस	-10.1634
इयों	-10.1634
ce	-10.1636
बाल	-10.1639
▁पक	-10.1643
▁रफ्तार	-10.1652
▁बिजनेस	-10.1652
▁नामांकन	-10.1652
▁सैन्य	-10.1652
▁मुहैया	-10.1652
▁गतिविधियों	-10.1652
▁जगहों	-10.1654
ेक्स	-10.1656
▁प्रबंध	-10.1672
मेल	-10.1672
▁बिक	-10.1673
▁Re	-10.1673
पोर्ट	-10.1676
▁सूख	-10.1676
▁सर्वश्रेष्ठ	-10.1677
▁गायब	-10.1678
वेल	-10.1681
▁व्यक्तिगत	-10.1685
इंट	-10.1686
▁पाठक	-10.1707
▁आरोपों	-10.1708
▁चालू	-10.1709
▁75	-10.171
▁शेयरों	-10.1711
▁जुटा	-10.1712
▁निकालने	-10.1719
▁अर्जुन	-10.1726
▁स्टाफ	-10.1729
▁गले	-10.1732
▁and	-10.1735
▁*	-10.1736
▁आग्रह	-10.1741
up	-10.1741
तत्कालीन	-10.1741
▁वादा	-10.1743
▁V	-10.1744
▁स्पेशल	-10.1751
▁इमारत	-10.1751
▁डाक्टर	-10.1754
▁खिल	-10.1758
▁इंजन	-10.1759
दाय	-10.176
शाह	-10.1761
बाज	-10.177
▁मेले	-10.1773
▁अक्तूबर	-10.1776
▁सहारा	-10.1777
▁उर्फ	-10.1777
▁शुरूआत	-10.1777
▁कुलदीप	-10.1779
▁स्वा	-10.1783
▁मेल	-10.1784
▁खेत	-10.1795
▁शीघ्र	-10.1801
▁रिकार्ड	-10.1801
▁भंडार	-10.1802
▁गोल्ड	-10.181
13	-10.1813
पूर्वक	-10.1821
▁मरीजों	-10.1821
▁मंड	-10.1827
▁लंबा	-10.183
▁2008	-10.1832
▁घेत	-10.1833
▁पुन	-10.1834
▁शेष	-10.184
▁करण	-10.1843
▁चीजों	-10.1849
96	-10.185
▁IST	-10.1852
▁शाहरुख	-10.1852
्ध	-10.1853
पै	-10.1856
ate	-10.1858
मै	-10.1859
▁शुरुआती	-10.186
ोली	-10.1862
▁तर्क	-10.1864
▁सोचा	-10.1867
▁कारोबारी	-10.1876
कला	-10.1879
▁दीवार	-10.1885
▁गिल	-10.1887
▁निर	-10.1889
▁मिश्र	-10.1891
▁छू	-10.1892
ंची	-10.1892
न्द्र	-10.1897
▁मिट्टी	-10.1904
▁तीसरी	-10.1906
▁बैठा	-10.191
▁असली	-10.191
56	-10.1911
▁जानिए	-10.1912
▁आजम	-10.192
▁7.	-10.1921
्टर	-10.1923
45	-10.1924
▁खेलों	-10.1924
▁हैरान	-10.193
▁रवाना	-10.1932
ex	-10.1937
▁चार्ज	-10.1939
नू	-10.1939
▁दिवसीय	-10.1945
▁क्रिकेटर	-10.1947
ak	-10.1951
लै	-10.1952
हरे	-10.1953
▁जमानत	-10.1955
▁नील	-10.1963
▁अंकों	-10.1972
▁मुकेश	-10.1972
ज्ञा	-10.1974
▁समझौता	-10.1979
▁48	-10.1981
्ज़	-10.1981
ान्त	-10.1982
▁g	-10.1984
▁पत्रिका	-10.1991
▁मलिक	-10.1995
▁जता	-10.2001
▁आस्ट्रेलिया	-10.2004
▁पवित्र	-10.2004
▁मारा	-10.2004
खंड	-10.2005
▁एयरपोर्ट	-10.2005
▁कामयाब	-10.2018
▁हिस्सेदारी	-10.203
▁सर्वे	-10.204
▁गीता	-10.2042
na	-10.2043
▁बोलने	-10.2044
▁स्मार्ट	-10.2055
▁लहर	-10.2058
ट्ट	-10.2059
▁महंगाई	-10.2061
गण	-10.2062
प्ट	-10.2066
▁छत	-10.2068
▁अंध	-10.207
प्रीत	-10.2073
▁व्ह	-10.2081
▁मालूम	-10.2081
▁आकाश	-10.2082
▁पत्रकारिता	-10.2084
▁कर्मियों	-10.2089
षा	-10.2094
ुअल	-10.2105
▁गुस्सा	-10.2107
▁रखकर	-10.2111
▁150	-10.2115
▁प्रतीक	-10.2122
▁बजा	-10.2132
▁विनोद	-10.2133
ठे	-10.2134
चु	-10.2139
▁6.	-10.215
शे	-10.2156
▁आश्वासन	-10.2159
▁बुजुर्ग	-10.2159
▁बनर्जी	-10.2159
▁बहुमत	-10.216
▁गौतम	-10.2161
▁गोयल	-10.2162
▁बरस	-10.2163
▁वायु	-10.2165
▁नीतियों	-10.2166
▁यूजर्स	-10.2166
त्रा	-10.2173
▁नमक	-10.2173
▁वार	-10.2176
▁कवर	-10.2179
▁प्रेरित	-10.2185
▁निगरानी	-10.2185
द्य	-10.2189
हट	-10.2193
▁निकलने	-10.2194
▁सिल	-10.22
ांक	-10.2203
ूँ	-10.2205
▁रिश्ते	-10.2205
▁इंटरव्यू	-10.2211
▁विस्फोट	-10.2211
▁सिफारिश	-10.2211
▁रिसर्च	-10.2211
▁अपडेट	-10.2212
ग्रह	-10.2213
▁भरपूर	-10.2215
चाल	-10.2216
▁वेद	-10.2218
कारों	-10.2227
▁साय	-10.2228
▁पारित	-10.2228
▁चूत	-10.2233
▁अभ्यास	-10.2237
▁वेस्टइंडीज	-10.2237
▁गाँव	-10.2237
▁आँख	-10.2238
▁नेहरू	-10.2238
▁बनाते	-10.2238
▁मनमोहन	-10.2239
मुळे	-10.224
▁कन्या	-10.2241
▁स्वतंत्र	-10.2243
▁गढ़	-10.2246
▁यूनिट	-10.2247
▁ब्रा	-10.2247
67	-10.2249
▁[	-10.2262
▁इंटरनेशनल	-10.2263
▁फॉर	-10.2264
▁अपेक्षा	-10.2265
▁युवकों	-10.227
▁रियल	-10.2272
▁धरती	-10.2274
यान	-10.2278
ai	-10.2283
▁डालने	-10.2288
04	-10.2292
02	-10.2298
▁गार्ड	-10.23
▁गुट	-10.2302
▁ट्रेड	-10.2312
▁रखता	-10.2315
▁खतरनाक	-10.2316
▁बचे	-10.2316
▁राणा	-10.2322
कडे	-10.2324
ta	-10.2325
▁बचने	-10.2337
▁सूरज	-10.2344
▁सावधान	-10.2344
ेष	-10.2349
▁सेवाओं	-10.235
▁महात्मा	-10.2369
▁प्रण	-10.2374
▁यानि	-10.2377
कुमार	-10.238
▁केन्द्रीय	-10.238
▁माफी	-10.2399
▁जानें	-10.2399
▁करोड़ों	-10.241
▁संवाद	-10.2416
▁निरीक्षण	-10.2422
▁अफगानिस्तान	-10.2422
▁ब्लैक	-10.2423
▁हरकत	-10.2428
▁चक्र	-10.2434
चंद	-10.2442
▁दुष्कर्म	-10.2449
▁प्राचीन	-10.2449
ैट	-10.2454
ाधिकारी	-10.2464
▁k	-10.2471
▁फैला	-10.2473
▁सैनिकों	-10.2473
▁ग्राहक	-10.2475
▁मानक	-10.2476
▁अज्ञात	-10.2476
▁बिगड़	-10.2479
▁विविध	-10.2479
▁बताए	-10.248
▁लगेगा	-10.248
▁निवेशकों	-10.2481
▁नाटक	-10.2486
W	-10.2488
▁प्रांत	-10.2489
24	-10.249
डू	-10.249
500	-10.2502
▁ज्ञापन	-10.2503
▁विद्यार्थी	-10.2503
▁दीप	-10.2519
वण	-10.2521
▁साजिश	-10.253
▁सबको	-10.2531
▁ड्राइवर	-10.2534
▁पहुंचाने	-10.255
▁सेवाएं	-10.2554
▁बुद्धि	-10.2558
▁रोजाना	-10.2559
▁संग्रह	-10.256
▁फिल्में	-10.2563
▁पलट	-10.2564
▁पवन	-10.2576
▁एव	-10.2576
िष	-10.2583
▁दूसरों	-10.2584
▁इनेलो	-10.2584
▁फंस	-10.2585
▁कहता	-10.2587
▁संदीप	-10.2589
▁फाइल	-10.259
▁पुरुषों	-10.2597
▁पूछे	-10.2602
▁on	-10.2607
▁प्रेरणा	-10.2611
▁हाइ	-10.2612
▁प्रकृति	-10.2615
ag	-10.2622
मंद	-10.2624
शान	-10.2631
ौली	-10.2635
ma	-10.2636
▁निक	-10.264
हिर	-10.2645
▁सुनने	-10.2646
▁असून	-10.2646
ts	-10.2649
▁गेंदबाजी	-10.265
▁लाइट	-10.2658
▁विज	-10.2659
ेक्शन	-10.2662
▁लाइसेंस	-10.2666
▁कंट्रोल	-10.2666
▁सफेद	-10.2666
▁वेब	-10.2666
▁बढ़ी	-10.2673
▁मानें	-10.2674
्‍व	-10.2677
▁चाल	-10.2679
▁प्राण	-10.2686
ंबर	-10.2686
ढ़ा	-10.2688
▁बनवा	-10.2689
धीरे	-10.2692
सान	-10.2694
▁सरपंच	-10.2694
▁स्टोर	-10.2694
ग्राम	-10.2716
टिक	-10.2719
त्ती	-10.272
▁पब्लिक	-10.2721
▁ड्यूटी	-10.2721
▁विन	-10.2721
▁प्रभु	-10.2724
▁आदत	-10.2727
गाह	-10.2733
▁धरना	-10.2742
▁जियो	-10.2746
▁मांगों	-10.2748
▁वार्षिक	-10.2748
57	-10.2749
▁नाकाम	-10.275
▁अमीर	-10.2751
▁धवन	-10.2752
▁स्तरीय	-10.2756
▁भो	-10.2759
लोक	-10.2762
ायत	-10.277
▁ढेर	-10.2776
▁जयंती	-10.2776
▁अधिकतर	-10.2777
▁तीसरा	-10.278
▁ओम	-10.2783
▁भय	-10.2783
▁समझने	-10.2794
▁व्यापारी	-10.2796
▁बू	-10.2796
▁सहयोगी	-10.28
▁सांग	-10.2801
▁नाबालिग	-10.2803
▁आरंभ	-10.2803
लेल्या	-10.2804
▁डालकर	-10.2806
▁बचपन	-10.2807
▁मात	-10.2816
धारी	-10.2816
रक्षक	-10.2821
▁समस्त	-10.2823
▁रिहा	-10.2824
ig	-10.2826
▁दिनेश	-10.2828
▁वाराणसी	-10.2831
▁एटीएम	-10.2831
▁एंटी	-10.2832
▁रघु	-10.2833
▁गंवा	-10.2836
▁बढ़ते	-10.2837
▁अर्थात	-10.2843
बंद	-10.2843
▁टकरा	-10.2846
▁कैमरे	-10.2847
त्थ	-10.2856
est	-10.2859
▁उल्लेख	-10.2859
▁संचालक	-10.2859
▁पुनर्	-10.2861
35	-10.2875
लु	-10.2879
्रेस	-10.288
▁पार्टनर	-10.2888
▁बेल	-10.2888
र्ब	-10.2889
▁संजीव	-10.2892
पंथ	-10.2898
हप्र	-10.29
▁टाइम्स	-10.2901
डिया	-10.2904
▁आर्य	-10.2905
▁विभागों	-10.2905
उस	-10.2917
▁आदिवासी	-10.2917
▁जरुर	-10.292
▁आमिर	-10.2924
बोध	-10.2925
▁निवास	-10.2925
▁सच्च	-10.293
▁प्रशासनिक	-10.293
▁पूर्वी	-10.2931
है	-10.2935
▁जन्मदिन	-10.2944
▁विशेषज्ञ	-10.2947
▁ग्ल	-10.2949
मय	-10.2952
▁मंत्रियों	-10.2957
थी	-10.2957
आइ	-10.2958
ण्यासाठी	-10.296
▁फुल	-10.2964
▁सकेगा	-10.2966
▁विवेक	-10.2971
▁वर्षा	-10.2975
▁संस्थानों	-10.2977
हां	-10.2982
▁प्राथमिकता	-10.2984
▁t	-10.2986
पात	-10.2988
▁सर्वाधिक	-10.2989
▁(1	-10.299
ia	-10.2992
▁यूरोप	-10.2995
te	-10.2999
▁बढ़ता	-10.3002
▁55	-10.3004
▁भेजे	-10.3012
फिल	-10.3017
▁हवाले	-10.3017
▁लटक	-10.3017
▁सीधा	-10.3021
▁हुड्डा	-10.3028
▁सबूत	-10.3028
वर्ष	-10.3029
▁अफसर	-10.303
म्भ	-10.3044
69	-10.3047
नै	-10.3049
▁आएगी	-10.3059
▁हेड	-10.3067
छात्राओं	-10.3072
▁सुनकर	-10.3074
▁पड़ती	-10.3076
▁कब्जे	-10.3085
▁श्याम	-10.3086
▁छप	-10.3087
▁इधर	-10.3091
▁हीरो	-10.3096
▁राजनाथ	-10.3097
▁दया	-10.3097
मंत्र	-10.3102
वाना	-10.3103
▁कराए	-10.3104
▁रिजल्ट	-10.3113
▁रिलायंस	-10.3113
▁चलाया	-10.3113
पक्ष	-10.3119
ap	-10.3122
▁चीजें	-10.3126
▁St	-10.3129
▁बर्	-10.3131
वती	-10.3138
▁अल्पसंख्यक	-10.3142
▁प्रोफेसर	-10.3142
▁लापरवाही	-10.3142
▁साउथ	-10.3142
▁धूम	-10.3146
▁प्याज	-10.3148
िंदर	-10.315
em	-10.3155
▁मस्त	-10.316
ांची	-10.3166
ड़िया	-10.3166
▁मुक्ति	-10.3167
▁अभिषेक	-10.3171
▁गेहूं	-10.3171
66	-10.3171
▁प्रकट	-10.3171
ाचा	-10.3173
▁शह	-10.3175
▁सैनिक	-10.3176
▁कानपुर	-10.3177
▁कार्यकारी	-10.3181
ानंद	-10.3196
▁ऑपरेशन	-10.32
89	-10.3202
▁पार्टियों	-10.3206
इंड	-10.3212
▁38	-10.3217
घा	-10.3223
▁आजाद	-10.3225
ॉड	-10.3226
......	-10.3228
▁ऋषि	-10.3228
▁बुनियाद	-10.3228
ूक	-10.3232
▁अमल	-10.3233
व्ह	-10.3239
▁धान	-10.3241
बान	-10.325
▁मतदाता	-10.3252
▁पहाड़	-10.3252
▁पाता	-10.3253
▁संदिग्ध	-10.3257
▁बरकरार	-10.3257
ल्ले	-10.3258
▁सालाना	-10.3262
▁डाली	-10.3276
▁चढ़ा	-10.3281
▁चोपड़ा	-10.3286
▁प्राधिकरण	-10.3286
▁ब्रिटिश	-10.3286
▁संचालित	-10.3286
▁हार्दिक	-10.3286
▁संपन्न	-10.3287
lo	-10.3288
▁पोस्टर	-10.3293
िष्ट	-10.3296
▁संबंधों	-10.33
▁65	-10.3301
▁सहज	-10.3303
and	-10.3304
ec	-10.3307
▁वाजपेयी	-10.3316
▁श्रीमती	-10.3316
ज्ञ	-10.3323
▁पढ	-10.3324
▁बिता	-10.3326
▁जंग	-10.3331
▁आंकड़े	-10.3345
▁जोखिम	-10.3345
▁वाट	-10.3346
▁आरएसएस	-10.3347
▁छोड़ने	-10.3349
क्या	-10.335
▁आइए	-10.3353
▁बलों	-10.3356
▁मुह	-10.3362
▁पॉल	-10.3362
वर्ती	-10.3363
▁दाल	-10.3367
मिया	-10.3367
▁बेरोजगार	-10.3374
▁नवम्बर	-10.3374
▁आमंत्रित	-10.3374
▁एसडीएम	-10.3374
▁शिखर	-10.3374
59	-10.3394
कोट	-10.3396
कारियों	-10.3398
▁संवाददाता	-10.3398
टेक	-10.34
▁जुर्माना	-10.3404
▁द्वितीय	-10.3404
▁त्यामुळे	-10.3405
▁दर्शा	-10.3405
▁आत्मा	-10.3405
▁चीज़	-10.341
ैक	-10.3411
▁झु	-10.3424
▁अनुरोध	-10.3433
▁द्वार	-10.3439
▁फैंस	-10.3441
▁कटा	-10.3447
▁बाला	-10.3449
▁दिलाने	-10.345
▁बचत	-10.3462
▁ब्राह्मण	-10.3463
▁जितनी	-10.3463
▁प्रोग्राम	-10.3464
▁पकड़ा	-10.3465
▁स्टॉक	-10.3466
▁जायेगी	-10.3472
▁बीमारियों	-10.3475
▁सुविधाएं	-10.3476
▁कलाकार	-10.349
▁प्रगति	-10.3492
▁दुश्मन	-10.3492
▁जीबी	-10.3493
▁कामकाज	-10.3496
ti	-10.35
▁डेट	-10.3501
▁पदार्थ	-10.3502
▁यहीं	-10.3505
▁फुट	-10.3507
▁तंत्र	-10.3509
▁अंग्रेज	-10.3519
▁प्रबंधक	-10.352
▁हस्ताक्षर	-10.3522
62	-10.3524
▁हर्ष	-10.3526
्थ	-10.3527
▁दिवाली	-10.3528
वाड़ा	-10.3529
▁बाबू	-10.3533
▁मिड	-10.3534
▁कमर	-10.3535
▁ठाकरे	-10.3552
▁धर्मशाला	-10.3552
▁व्यक्तियों	-10.3559
▁डाटा	-10.3565
▁आफ	-10.3566
▁जाएंगी	-10.3572
▁बोर	-10.3579
ac	-10.358
▁उन्होने	-10.3582
▁अमरीकी	-10.3582
▁छुट्टी	-10.3582
▁उड़ा	-10.3586
▁दस्त	-10.3589
ग्राफ	-10.3591
ट्री	-10.3601
▁निर्देशक	-10.3603
▁समर्थकों	-10.3606
▁करवाई	-10.3609
▁प्रभावी	-10.3611
▁बीसीसीआई	-10.3612
▁हिंदुस्तान	-10.3612
▁हल्का	-10.3612
जय	-10.3615
फल	-10.3618
फोन	-10.3618
▁जताया	-10.3619
क्रम	-10.3621
ूद	-10.3626
▁गाव	-10.3626
▁गोपाल	-10.3627
डऩे	-10.3628
▁देरी	-10.3638
▁बैक	-10.3641
वालों	-10.3649
▁अपमान	-10.365
▁लेती	-10.3656
षण	-10.367
▁ओलंपिक	-10.3672
▁मद्देनजर	-10.3672
▁हिस्सों	-10.3672
▁प्रार्थना	-10.3672
▁स्थिर	-10.3672
▁विवरण	-10.3672
वर्धन	-10.3674
▁खेली	-10.3675
▁स्टील	-10.3678
▁समर्थक	-10.3678
''	-10.3683
▁मरीज	-10.3684
्ते	-10.3685
पोषण	-10.3685
▁स्वच्छ	-10.3686
▁बरत	-10.3692
▁रूम	-10.3692
▁उपभोक्ता	-10.3697
▁सिनेमा	-10.3702
▁हज़ार	-10.3703
द्वीप	-10.3703
▁ग़	-10.3704
▁शरीफ	-10.3705
▁खाता	-10.3711
86	-10.3716
co	-10.3726
▁कॉन्	-10.3729
▁त्योहार	-10.3733
▁हंगामा	-10.3733
▁झाले	-10.374
▁दुकानदार	-10.3746
ग्रस्त	-10.3747
▁डाक	-10.3748
ण्य	-10.3763
▁हुसैन	-10.3763
▁सपने	-10.3764
▁उच्चतम	-10.3769
▁कार्यक्रमों	-10.377
▁सरल	-10.3771
ers	-10.3773
▁सक	-10.3779
बुल	-10.3788
▁यश	-10.3793
▁एक्टर	-10.3793
▁प्रौद्योगिकी	-10.3794
▁मकसद	-10.3794
▁एकमात्र	-10.3794
▁शरद	-10.3795
▁मुझसे	-10.3796
▁42	-10.3801
ट्रिक	-10.3811
▁पाप	-10.3813
▁37	-10.3816
▁नशे	-10.3816
▁जुट	-10.3823
▁मुठभेड़	-10.3825
▁सलाम	-10.3836
▁पड़ने	-10.3847
▁पश्चात	-10.3855
▁चम्मच	-10.3856
▁खतरे	-10.3856
▁सुनी	-10.3863
▁शास्त्री	-10.3867
▁अटक	-10.3868
ll	-10.3875
▁कागज	-10.3877
▁निचल	-10.3879
▁अन्ना	-10.3884
▁घटा	-10.3885
▁जर्मनी	-10.3886
▁[...]	-10.3886
▁अनुसंधान	-10.3886
▁नोएडा	-10.3886
▁गेल	-10.3889
नायक	-10.39
▁नाथ	-10.3904
23	-10.3907
ाधिकार	-10.3915
▁आंध्र	-10.3917
▁लघु	-10.3919
▁सवालों	-10.3919
▁बहादुर	-10.3928
एसएस	-10.3928
▁राजेंद्र	-10.3928
▁धीम	-10.393
ुओं	-10.3931
इंग	-10.3937
▁किरण	-10.3938
▁डॉक्टरों	-10.3941
▁रोह	-10.3942
बै	-10.3948
▁मुखर्जी	-10.3948
▁निपटने	-10.3948
▁इंच	-10.3949
▁पुराना	-10.3951
▁मजदूरों	-10.3951
▁लाग	-10.3953
इं	-10.3954
78	-10.3968
एसटी	-10.3972
▁आली	-10.3974
▁नंद	-10.3975
▁गठित	-10.398
▁कल्पना	-10.398
▁उद्यम	-10.398
▁देवता	-10.3985
्दा	-10.3987
▁ऑन	-10.3991
▁कार्यरत	-10.3992
▁प्रेमी	-10.3994
88	-10.3997
▁गंभीरता	-10.401
▁आश्रम	-10.4011
▁देखे	-10.4011
▁कार्तिक	-10.4011
▁उद्	-10.4029
ांतर	-10.4033
▁बैग	-10.404
▁सितम्बर	-10.4042
▁संहिता	-10.4042
▁किन्तु	-10.4042
▁प्रसन्न	-10.4042
▁प्रतिदिन	-10.4045
▁आमतौर	-10.4048
▁अश्विन	-10.4052
▁बुक	-10.4056
▁एशियाई	-10.4058
▁पट्ट	-10.406
▁सलाहकार	-10.4065
▁भेजने	-10.4069
▁देशभर	-10.4072
▁धार	-10.4073
▁हृदय	-10.4074
▁सेंसेक्स	-10.4074
▁तूफान	-10.4074
▁बाजारों	-10.4075
▁शोषण	-10.4075
▁मध्यम	-10.4077
▁जानकार	-10.4085
▁Ma	-10.4088
73	-10.4091
▁मोड़	-10.4093
▁ज़ि	-10.4098
▁अवश्य	-10.4105
▁दफ्तर	-10.4105
▁अनाज	-10.4106
▁सुलझ	-10.4107
▁जूझ	-10.4107
▁व्यापारियों	-10.4108
▁पीढ़ी	-10.4108
▁कैश	-10.4111
▁अध्यापक	-10.4114
um	-10.4126
▁सरदार	-10.4131
जान	-10.4135
▁अखिल	-10.4137
▁मिर्च	-10.4139
55	-10.4148
▁वाद	-10.4148
दू	-10.4149
▁श्रीनगर	-10.4151
▁बड़	-10.4157
▁प्राप्ति	-10.4164
▁Loading	-10.4169
▁ब्यूरो	-10.4169
▁सिद्धांत	-10.417
ैंड	-10.417
▁निकाली	-10.4171
▁ट्रैक	-10.4173
▁रिश्तेदार	-10.4175
देह	-10.4177
▁मुसलमान	-10.4178
▁लिहाज	-10.4182
▁जॉन	-10.4187
▁यूं	-10.419
▁लिखित	-10.4193
94	-10.4196
▁तहसील	-10.4198
▁अधिग्रहण	-10.42
▁तुम्हारे	-10.42
▁सामूहिक	-10.42
▁ढूंढ	-10.42
▁निर्मित	-10.42
im	-10.4202
▁व्यस्त	-10.4205
▁लाई	-10.421
▁भला	-10.4213
गाव	-10.4218
▁बर्फ	-10.4231
ग़	-10.4232
▁आश्चर्य	-10.4232
▁रुचि	-10.4234
▁सुशील	-10.424
han	-10.4241
▁बनता	-10.4241
97	-10.4246
▁एकदम	-10.4249
▁गे	-10.4249
र्ष	-10.4251
▁नष्ट	-10.4252
दर्शन	-10.4254
ke	-10.4254
▁दायरे	-10.4259
ly	-10.4259
–	-10.426
▁प्रिय	-10.4262
▁रत्न	-10.4266
▁चट	-10.4271
▁काबू	-10.4274
▁सीता	-10.4278
▁रायपुर	-10.4288
भूषण	-10.4293
▁योग्यता	-10.4295
▁फरीदाबाद	-10.4297
▁हादसा	-10.4297
id	-10.4299
▁द्र	-10.4302
▁रुपया	-10.4304
de	-10.4309
▁बाप	-10.431
्‍ल	-10.4315
▁दोहरा	-10.4316
▁देह	-10.4319
▁सदर	-10.432
age	-10.432
शिक्ष	-10.4321
्नी	-10.4324
▁फायदे	-10.4328
▁अनुसूचित	-10.4329
▁उन्हीं	-10.4329
▁कनेक्शन	-10.4329
▁महाविद्यालय	-10.4329
▁शर्म	-10.4332
▁संचार	-10.4339
77	-10.4346
▁Ch	-10.4347
स्वामी	-10.4358
▁आह्वान	-10.4361
▁प्रत्यक्ष	-10.4361
▁चक्कर	-10.4361
▁लाइव	-10.4363
▁गाना	-10.4379
▁बाज	-10.4385
ैक्ट	-10.4392
▁चूंकि	-10.4394
▁श्रेय	-10.4394
▁क्रांति	-10.4402
▁निर्मल	-10.4405
74	-10.4406
कॉम	-10.4412
▁आगरा	-10.4413
▁जाया	-10.4416
▁फेर	-10.4424
▁शुक्र	-10.4426
▁पाटील	-10.4426
▁मिसाइल	-10.4427
▁दिखने	-10.4428
▁2007	-10.4434
▁इंद्र	-10.4435
अपने	-10.4437
.....	-10.4438
87	-10.4442
त्तर	-10.4448
▁इंजीनियर	-10.4451
▁खोलने	-10.4451
▁आपस	-10.4454
▁मनोरंजन	-10.4459
▁साहिब	-10.4459
▁समीप	-10.446
▁दाग	-10.446
ंचे	-10.4461
ळे	-10.4463
▁विष्णु	-10.4465
ानुसार	-10.4469
▁पेंट	-10.4474
▁अभाव	-10.4479
▁पन्न	-10.448
he	-10.4489
▁पहुंचाया	-10.449
▁धन्यवाद	-10.4492
▁यकीन	-10.4492
▁रूट	-10.4496
▁मानने	-10.4499
▁इंजीनियरिंग	-10.45
▁अंश	-10.4506
▁छाप	-10.451
रूम	-10.4514
▁साई	-10.4515
▁पथ	-10.4519
▁अफसरों	-10.4522
▁अनुकूल	-10.4525
▁निपटा	-10.4527
▁मतदाताओं	-10.4531
्यूट	-10.4541
▁जायेंगे	-10.4542
▁असा	-10.4548
चौ	-10.4549
▁हॉट	-10.4553
▁जीते	-10.4556
▁यातायात	-10.4558
▁रिटर्न	-10.4558
▁सुरू	-10.456
डिंग	-10.456
▁स्वाद	-10.4564
▁AM	-10.4566
▁देखिए	-10.4571
▁जिल्हा	-10.4573
▁स्वर	-10.4588
▁श्रीवास्तव	-10.4591
▁सप्लाई	-10.4591
क्षण	-10.4595
▁रोशन	-10.4601
▁बोलते	-10.4601
▁सुविधाओं	-10.4612
09	-10.4614
रेशन	-10.4616
▁नीला	-10.4623
▁विटामिन	-10.4624
▁बाधा	-10.4624
▁शिक्षण	-10.4625
मंडल	-10.4626
▁चन्द्र	-10.4629
▁वसूल	-10.4632
▁ग्रीन	-10.4644
▁चतुर	-10.4645
▁विचारों	-10.4648
▁निकला	-10.4653
▁भगत	-10.4656
भूमि	-10.4657
▁विपरीत	-10.4657
▁विस्तृत	-10.4657
▁पायलट	-10.4657
▁निम्न	-10.4657
▁विचारधारा	-10.4657
▁खनन	-10.4659
एक्स	-10.4662
▁कहे	-10.4664
▁जिसमे	-10.4665
49	-10.4673
▁कीमतें	-10.4674
ost	-10.4677
ढा	-10.4686
▁दंड	-10.4686
▁मिलेंगे	-10.4688
▁आकर्षित	-10.4691
▁उत्सव	-10.4691
▁एफआईआर	-10.4691
▁दिसम्बर	-10.4691
क्ल	-10.4695
▁विक्रम	-10.4696
▁भेंट	-10.4699
▁जिंदा	-10.4701
ग्ग	-10.4708
एगा	-10.4721
▁ट्रेनिंग	-10.4724
▁गरम	-10.4725
28	-10.4734
▁44	-10.4744
▁शु	-10.4749
▁आयी	-10.4751
▁अभिनय	-10.4758
▁ईमानदार	-10.4758
▁नर्स	-10.4759
▁पदाधिकारी	-10.4761
▁प्रदीप	-10.4768
▁लिखने	-10.4776
▁मारकर	-10.4782
ॉर	-10.4783
▁चांदी	-10.4784
▁जैक	-10.4785
आईपी	-10.4786
▁थक	-10.4787
▁उपस्थिति	-10.4788
ंद्र	-10.479
▁क्रेडिट	-10.4792
▁महत्त्व	-10.4792
▁श्रृंखला	-10.4792
▁इजाफा	-10.4792
▁राजपूत	-10.4792
▁पूजन	-10.4796
▁पड़ोसी	-10.4797
▁खासकर	-10.4803
▁टीचर	-10.4804
▁दलितों	-10.4807
▁जब्त	-10.4814
▁स्रोत	-10.4826
▁घंटों	-10.4826
▁जहर	-10.4832
कडून	-10.4834
द्दी	-10.4838
चंद्र	-10.4842
वाया	-10.4842
▁प्रारंभ	-10.4852
नंतर	-10.4855
▁कड़ा	-10.4857
▁संवेदनशील	-10.486
▁मैसेज	-10.486
स्थान	-10.486
▁मीटिंग	-10.4862
▁आभार	-10.4862
▁सौंपा	-10.4863
▁बिहारी	-10.4866
▁बदमाशों	-10.4868
▁निकाय	-10.4869
णार्‍या	-10.4871
▁हराया	-10.4871
ष्‍ट	-10.4875
▁परियोजनाओं	-10.4875
▁छीन	-10.4879
art	-10.4889
▁पेयजल	-10.4894
▁आईसीसी	-10.4894
क्‍स	-10.4894
▁गज	-10.4895
▁मिलना	-10.49
▁आतंकवादियों	-10.4913
▁बौद्ध	-10.4928
▁मंत्रिमंडल	-10.4928
32	-10.4932
▁डीएम	-10.4947
▁स्वच्छता	-10.495
▁परिजन	-10.4952
वासी	-10.4955
ंदर	-10.4956
्‍ट	-10.4958
▁खरीदा	-10.4959
▁त्रिपाठी	-10.4962
▁बहरहाल	-10.4962
▁India	-10.4962
▁मैनेजर	-10.4963
▁इन्ही	-10.497
end	-10.497
tion	-10.4973
शिया	-10.4973
▁एसी	-10.4975
शाली	-10.4976
▁निंदा	-10.4984
▁रात्रि	-10.4995
▁एक्सचेंज	-10.4997
▁बिलासपुर	-10.4997
▁दर्जा	-10.4997
GB	-10.4999
ृष्ट	-10.5002
▁संसार	-10.5004
▁जानना	-10.5011
▁गवाह	-10.5016
▁मिट	-10.5022
▁कलाकारों	-10.5027
लेख	-10.5027
▁फिल्‍म	-10.5031
▁प्लांट	-10.5031
कर्मी	-10.5032
िस्तान	-10.5042
▁बहा	-10.5044
▁जागरूक	-10.5046
बाग	-10.505
▁लगाना	-10.505
▁Read	-10.5052
▁मुल	-10.506
▁मानी	-10.5061
▁2000	-10.5066
▁अपहरण	-10.5066
▁पोस्टमार्टम	-10.5066
▁प्लास्टिक	-10.5066
▁आंकड़ा	-10.5066
▁परिस्थितियों	-10.5068
▁ड्रेस	-10.5068
▁स्नान	-10.5069
▁हज	-10.5073
ट्रो	-10.5073
▁सार	-10.5074
▁टैंक	-10.5076
▁भाग्य	-10.5077
▁सिखा	-10.509
▁चलती	-10.509
▁पहुंचकर	-10.509
▁महेश	-10.5091
▁जानता	-10.5091
्योर	-10.5092
कृष्ण	-10.5099
▁साइकिल	-10.5101
▁मासूम	-10.5101
▁1000	-10.5102
▁रूपए	-10.5103
▁गर्व	-10.5109
▁दिखे	-10.5125
फाई	-10.5126
37	-10.5134
▁दृश्य	-10.5136
▁पदाधिकारियों	-10.5136
▁समर्पित	-10.5136
▁रेस	-10.5137
▁जोरदार	-10.5144
ve	-10.5146
सिस	-10.5148
65	-10.5149
इए	-10.5154
▁शास्त्र	-10.5161
▁39	-10.5168
▁संस्करण	-10.5171
▁सर्वेक्षण	-10.5171
▁मद	-10.5176
ud	-10.5177
▁माध्यमिक	-10.5182
▁आवाज़	-10.5182
one	-10.5193
शंकर	-10.5193
▁बैंकिंग	-10.52
▁हिट	-10.5212
▁शशि	-10.5215
▁बनती	-10.5219
▁संस्थाओं	-10.5225
▁Co	-10.5235
▁बैटरी	-10.5242
▁मनाने	-10.5243
▁करेंगी	-10.5246
▁गैंग	-10.5247
▁तुम्हें	-10.5247
▁उपभोक्ताओं	-10.5248
▁पैक	-10.525
▁प्रवास	-10.5253
▁रखती	-10.5254
▁लिंग	-10.5259
82	-10.526
▁मांगा	-10.5261
▁हथ	-10.5271
▁सीन	-10.5273
▁आशीर्वाद	-10.5277
▁ट्रैफिक	-10.5277
▁अंतरिक्ष	-10.5277
▁सिंचाई	-10.5277
आरसी	-10.5283
मान्य	-10.5289
ist	-10.529
▁दरों	-10.529
▁धम	-10.5295
▁नारे	-10.5296
▁गै	-10.5298
▁गुप्त	-10.5312
▁पिटाई	-10.5313
▁वाह	-10.5313
▁कृपा	-10.5313
▁फायर	-10.5313
▁आस्था	-10.5313
▁दिलीप	-10.5313
▁गोरखपुर	-10.5315
[	-10.5315
▁गुलाब	-10.5318
▁अल्	-10.5321
▁आपत्ति	-10.5322
▁गिन	-10.5325
▁मेला	-10.5334
▁क्रिया	-10.5334
ण्याची	-10.5343
▁अभिभावक	-10.5348
▁रिटायर	-10.5348
प्रति	-10.535
▁स्कीम	-10.5352
ाएंगे	-10.536
कृति	-10.5361
धारक	-10.5366
▁शनि	-10.5372
▁रिव	-10.5374
▁राजद	-10.5374
▁सैनी	-10.5376
मिल	-10.5379
▁बालक	-10.538
▁झाली	-10.538
▁इत्यादि	-10.5384
▁रैंकिंग	-10.5384
▁ख्याल	-10.5385
▁चौथी	-10.5386
▁आईं	-10.5387
▁करून	-10.5405
▁साधारण	-10.541
राज्य	-10.5413
▁शुक्ला	-10.5415
▁शौक	-10.5417
ाचार	-10.5417
▁उल	-10.5418
▁गड़बड़	-10.542
27	-10.5421
▁जेब	-10.5421
▁सांसदों	-10.5425
▁दुर्गा	-10.543
▁नतीजे	-10.5444
▁कुर्	-10.5448
▁सोम	-10.545
▁विशिष्ट	-10.5456
▁पुष्प	-10.5456
▁गहरा	-10.546
▁रोका	-10.5466
▁हॉ	-10.5467
▁मर्	-10.5467
प्पा	-10.5471
▁नहर	-10.5481
▁गिरने	-10.5481
▁गोद	-10.5481
▁नाबाद	-10.5491
▁No	-10.5491
▁राजनैतिक	-10.5492
▁चूक	-10.5493
▁अंबानी	-10.5493
▁सच्चाई	-10.5497
▁पाये	-10.5497
▁साइ	-10.5499
▁स्वराज	-10.5511
फ़ा	-10.5517
▁आधी	-10.5521
▁प्रयासों	-10.5521
▁बहाल	-10.5527
▁एजेंसियों	-10.5529
▁ख़िलाफ़	-10.5529
▁निरंतर	-10.5529
▁संस्थापक	-10.5529
▁रोज़	-10.5531
▁श्रद्धा	-10.5531
कभी	-10.5533
▁साझेदारी	-10.5543
▁आर्ट	-10.5544
ेबल	-10.5556
अवगत	-10.5558
▁खेलते	-10.556
घात	-10.5562
▁उपचुनाव	-10.5565
▁भूकंप	-10.5565
▁निफ्टी	-10.5565
▁पैमाने	-10.5565
▁माहिती	-10.5566
▁ठोस	-10.5568
▁ठेकेदार	-10.5568
ive	-10.5573
▁फायरिंग	-10.5574
▁बोझ	-10.5577
▁मुखिया	-10.5578
ंजर	-10.5582
▁जागरूकता	-10.5586
▁नकदी	-10.5593
26	-10.5595
▁राफेल	-10.5602
▁एकजुट	-10.5602
▁पेशकश	-10.5602
▁उन्‍हे	-10.5603
▁जाओ	-10.5606
▁लाश	-10.5612
▁लांच	-10.5618
▁बढ़ाया	-10.5618
▁गरीबों	-10.5622
▁मैने	-10.5624
▁सनी	-10.5625
चरण	-10.563
▁चांद	-10.5636
▁अश्लील	-10.5639
▁अवार्ड	-10.5639
▁ट्रेलर	-10.564
▁महोत्सव	-10.564
av	-10.5641
▁रांची	-10.5647
▁ज़रूरत	-10.5654
29	-10.5662
▁आयकर	-10.5664
▁फीचर	-10.5667
▁किस्म	-10.5668
▁समृद्ध	-10.5676
▁रणवीर	-10.5676
▁नारेबाजी	-10.5676
▁बॉ	-10.568
▁49	-10.568
▁46	-10.5684
▁लिहाजा	-10.5684
▁तालाब	-10.5688
▁बेस्ट	-10.5688
▁ट्रांस	-10.569
▁आहार	-10.569
▁कमाल	-10.5692
्रेट	-10.5693
bo	-10.5698
▁ऑल	-10.5702
▁बिन	-10.5703
▁हराकर	-10.5705
▁पंकज	-10.5713
▁अनुरूप	-10.5715
▁हमलों	-10.5718
▁स्टाइल	-10.5718
39	-10.5721
्‍प	-10.5725
▁प्रतिष्ठा	-10.5725
▁आपसे	-10.5728
▁बनना	-10.5742
31	-10.5742
▁लीड	-10.5743
▁दावे	-10.5743
▁यूजर	-10.5745
▁उत्पीड़न	-10.575
▁वाणिज्य	-10.575
▁कच्चे	-10.575
▁पापा	-10.5753
▁पांडे	-10.5754
▁विफल	-10.5756
▁भटक	-10.5758
tr	-10.576
▁तिल	-10.5767
▁आर्	-10.5772
▁st	-10.5776
▁क्रू	-10.5776
▁पंत	-10.5779
▁मौजूदगी	-10.5781
▁डाले	-10.5783
▁अवस्था	-10.5787
▁दिल्‍ली	-10.5787
▁जनपद	-10.5787
▁अधि	-10.5788
ढ़ी	-10.5789
▁दै	-10.5791
▁आर्मी	-10.5791
▁बरसात	-10.5794
▁प्रस्तावित	-10.5794
▁वैज्ञानिकों	-10.5796
▁जीतकर	-10.5797
▁भव्य	-10.58
▁राशन	-10.58
▁400	-10.58
▁बैर	-10.5806
▁साफ़	-10.5807
ka	-10.5815
▁इंतजाम	-10.5825
▁इंस्टाग्राम	-10.5825
▁स्थायी	-10.5825
▁चौटाला	-10.5825
▁बूथ	-10.5831
▁गायक	-10.5836
ौड़	-10.5851
▁ऑफ़	-10.5859
▁नतीजा	-10.586
▁मामूली	-10.5862
▁जितने	-10.5863
▁संयंत्र	-10.5864
▁हाँ	-10.5865
▁फैशन	-10.5867
पाट	-10.5869
इश	-10.5882
▁मजबूती	-10.5886
▁पकड़े	-10.5889
▁छाया	-10.5889
▁मोर	-10.5892
▁अधिसूचना	-10.59
are	-10.5901
▁साधन	-10.5902
कर्म	-10.5905
▁घटनाएं	-10.5906
▁सूरत	-10.5906
▁खैर	-10.5909
ाचार्य	-10.591
▁चर	-10.5914
▁ग्रा	-10.5937
▁फूड	-10.5938
▁छिपा	-10.5947
▁फिट	-10.5952
खण्ड	-10.5954
▁तह	-10.5974
▁अहमदाबाद	-10.5978
▁पाती	-10.598
▁दोस्ती	-10.5983
▁जहाज	-10.5986
पीएफ	-10.5991
▁रॉयल	-10.5999
पासून	-10.6006
▁निलंबित	-10.6014
▁बृहस्पतिवार	-10.6014
▁किलोग्राम	-10.6015
▁ट्रस्ट	-10.602
आउट	-10.6022
83	-10.6031
▁आपदा	-10.6046
ल्ली	-10.6051
▁आयुर्वेद	-10.6052
▁ओडिशा	-10.6052
▁सीसीटीवी	-10.6052
▁सुषमा	-10.6052
▁बर्बाद	-10.6053
पीओ	-10.6055
▁संदेह	-10.6057
▁आसमान	-10.6059
▁संस्कृत	-10.606
▁टेली	-10.6083
ऊँ	-10.6084
▁विष	-10.6086
लेस	-10.6089
▁अग्नि	-10.6092
▁असफल	-10.6093
▁आपसी	-10.6096
▁प्रशांत	-10.6099
▁अधिकारों	-10.6112
▁41	-10.6121
▁पाना	-10.6125
टेन	-10.6126
▁घायलों	-10.6127
▁सीईओ	-10.6129
▁जागरण	-10.613
▁कुल्लू	-10.6131
▁नाइट	-10.6137
महा	-10.6138
▁मजा	-10.6138
▁झुक	-10.614
▁सोन	-10.6142
▁लू	-10.6149
▁लीजिए	-10.6168
▁सियासी	-10.6168
▁लैंड	-10.6171
▁विषयों	-10.6175
ोदय	-10.6176
▁लक्षण	-10.6179
▁उतरे	-10.6179
▁भिड़	-10.6188
ेटिव	-10.6192
▁शैली	-10.6198
81	-10.62
▁वसूली	-10.6203
▁जोड़ा	-10.6204
▁हिम	-10.6207
▁आरबीआई	-10.6207
▁तेलंगाना	-10.6207
▁पाउडर	-10.6207
▁हवाला	-10.621
▁कैसा	-10.621
▁ललित	-10.6211
▁अन्त	-10.6212
▁निशाने	-10.6216
▁शै	-10.622
▁आचार्य	-10.6222
ंबा	-10.6223
्च	-10.6225
▁जोड़ने	-10.623
2018	-10.6235
▁बाई	-10.6235
▁चलेगा	-10.6237
▁de	-10.6238
.30	-10.624
▁ज्योति	-10.6244
79	-10.6244
▁प्रदर्शित	-10.6246
▁हॉस्पिटल	-10.6246
▁मुनाफा	-10.6246
▁कोतवाली	-10.6247
▁स्म	-10.6247
▁यूरोपीय	-10.6253
▁नाराजगी	-10.6253
विरोध	-10.6256
▁कमान	-10.6264
▁तै	-10.6266
▁Sh	-10.6268
33	-10.6273
▁कमेंट	-10.628
▁चो	-10.628
▁सोह	-10.6281
▁विशेषज्ञों	-10.6283
▁अनुच्छेद	-10.6285
▁सेमीफाइनल	-10.6285
▁शौचालय	-10.6286
साहेब	-10.6289
▁टेबल	-10.6294
▁कृष्णा	-10.6295
▁गहन	-10.6304
ल्याने	-10.6305
▁इंकार	-10.6306
विध	-10.6306
▁भागीदारी	-10.6309
▁लड़का	-10.6317
▁रोशनी	-10.6321
▁परिचय	-10.6325
▁अनुराग	-10.6325
▁तकरीब	-10.6325
▁स्वर्ग	-10.633
▁ईरानी	-10.6332
▁ज़रूरी	-10.6333
ल्हा	-10.6333
▁पालिका	-10.6335
▁उलट	-10.6337
▁वैध	-10.6337
if	-10.6344
‘	-10.6347
संघ	-10.6348
▁बहाने	-10.6355
▁सोनी	-10.6363
▁कैप्टन	-10.6364
▁प्राइम	-10.6364
▁गणित	-10.6365
▁मसले	-10.6365
▁सिद्धार्थ	-10.6365
फ्त	-10.6366
▁श्रद्धालुओं	-10.6368
▁एक्शन	-10.6375
आईसी	-10.6379
ip	-10.6383
▁43	-10.6385
▁टाल	-10.6389
48	-10.6393
▁पाणी	-10.6393
▁ख़बर	-10.64
▁सेंट्रल	-10.6404
▁हमीरपुर	-10.6404
▁रिश्तों	-10.6404
▁वंचित	-10.6404
▁सब्जी	-10.6404
▁जाधव	-10.6404
▁कन्	-10.6405
▁अपराधियों	-10.6408
▁साहस	-10.6409
▁तन	-10.6415
▁आंख	-10.6426
ब्ल	-10.6429
सीआई	-10.6435
▁ड्राइव	-10.6438
▁विश्लेषण	-10.6444
▁सिलसिले	-10.6444
▁वाई	-10.6452
▁यथा	-10.6452
निर्देश	-10.6455
मुझे	-10.6455
▁सपोर्ट	-10.6455
▁सदा	-10.6465
▁दुकानों	-10.6466
वेस्ट	-10.6466
▁मरने	-10.6478
▁अनुष्का	-10.6484
▁मोटरसाइकिल	-10.6484
▁त्यांनी	-10.6484
▁खोला	-10.6484
▁ऊंचाई	-10.6489
▁ठग	-10.6498
▁रावण	-10.6504
▁नरेश	-10.6507
▁रेडियो	-10.6508
▁मैक	-10.6508
▁समस्याएं	-10.6514
▁पंचकूला	-10.6524
▁व्याख्या	-10.6524
▁भोजपुरी	-10.6524
▁अनुबंध	-10.6526
▁नकली	-10.6526
▁बॉडी	-10.6529
टिव	-10.6538
ee	-10.654
mp	-10.6541
आज	-10.6543
▁दुर्	-10.655
▁कहकर	-10.6564
▁सूचकांक	-10.6564
▁भेदभाव	-10.6564
▁नैतिक	-10.6564
▁जवाहर	-10.6564
▁अकबर	-10.6564
▁मासिक	-10.6565
▁सतीश	-10.6565
▁रहस्य	-10.6565
▁पैकेज	-10.6567
विमर्श	-10.6567
▁शोर	-10.6572
▁स्तन	-10.6575
▁क्रमश	-10.6579
▁चरम	-10.6589
▁उमर	-10.6593
▁डु	-10.6597
▁चुप	-10.6597
-10	-10.6599
▁कराना	-10.6603
ांचे	-10.6605
▁ज्‍यादा	-10.6605
▁लड़कियां	-10.6605
▁फ्लैट	-10.6606
प्शन	-10.6606
ver	-10.6607
मंड	-10.6609
▁पंप	-10.6613
ज्ञान	-10.6616
▁मेघ	-10.6617
▁ब्लू	-10.6624
▁घूमने	-10.6641
▁अस्तित्व	-10.6645
▁देहरादून	-10.6645
▁रणबीर	-10.6645
▁जूनियर	-10.6651
▁फार	-10.6652
ant	-10.6674
▁72	-10.6675
शक्ति	-10.6675
▁माय	-10.6676
ातून	-10.6682
कालीन	-10.6686
▁इजाजत	-10.6686
▁आधे	-10.6687
▁समापन	-10.6689
ard	-10.669
क्षेत्र	-10.6699
▁Me	-10.6712
िंद्र	-10.6712
▁रेंज	-10.6715
▁जरुरत	-10.6722
▁उदय	-10.6723
▁महंगा	-10.6724
▁शमी	-10.6726
▁हिम्मत	-10.6727
▁नृत्य	-10.6728
▁बिलकुल	-10.673
38	-10.6733
▁ट्रे	-10.6735
▁ख़ास	-10.6738
▁पार्ट	-10.6766
▁तेजस्वी	-10.6768
▁एंट्री	-10.6768
▁इमाम	-10.6769
▁मानवाधिकार	-10.677
▁अगुवा	-10.6772
▁गहरी	-10.6779
▁रॉ	-10.6783
क्श	-10.6783
▁54	-10.679
▁मोटा	-10.6798
▁लक्ष	-10.68
काय	-10.6802
मेट	-10.6805
▁77	-10.6805
85	-10.6806
▁अत्याचार	-10.681
▁इंस्पेक्टर	-10.681
▁साक्षात्कार	-10.681
▁डिप्टी	-10.681
▁मानसून	-10.681
42	-10.6819
राय	-10.6822
▁धड़	-10.6828
▁for	-10.6843
▁जातक	-10.6844
थील	-10.6845
▁अकादमी	-10.6851
▁पीडि़त	-10.6851
▁सिलसिला	-10.6851
▁अत्यंत	-10.6851
▁चरित्र	-10.6851
▁अन्दर	-10.6851
▁आज़ाद	-10.6853
▁स्टोरी	-10.6864
J	-10.6866
▁छापा	-10.6867
▁पर्वत	-10.687
ावली	-10.688
▁लौ	-10.6884
▁ताज	-10.6893
▁प्रवीण	-10.6893
▁ग्लोबल	-10.6893
▁धूप	-10.6893
▁बेटियों	-10.6893
▁टेनिस	-10.6896
▁चिन्ह	-10.6898
36	-10.6899
▁देवेंद्र	-10.69
▁राजनेता	-10.6905
ॉन्ग	-10.6905
▁थम	-10.6909
▁काटने	-10.6914
▁सहमत	-10.6924
बन्ध	-10.6926
▁कमिश्नर	-10.6935
▁क़ानून	-10.6935
▁नकारात्मक	-10.6935
▁संभावित	-10.6935
▁दरवाजा	-10.6935
▁मेजबान	-10.6935
▁कट्टर	-10.6936
▁खेतों	-10.6942
भु	-10.6943
▁मंजूर	-10.6956
गुरु	-10.6957
▁खां	-10.6958
▁माफ	-10.6962
आरपी	-10.6962
▁मजाक	-10.6964
▁सौदा	-10.6968
▁धरने	-10.6971
▁अब्दुल	-10.6977
▁गणतंत्र	-10.6977
▁डोनाल्ड	-10.6977
▁ख़ुद	-10.6977
▁मेहता	-10.6977
▁रंजन	-10.6979
हड़	-10.6979
▁भाभी	-10.6981
▁व्यक्तित्व	-10.6983
▁पांडेय	-10.6984
▁ईद	-10.6992
▁चैंपियन	-10.6994
▁समझते	-10.6995
▁हसन	-10.6999
▁संतान	-10.7
▁अनुमानित	-10.7003
ाएगी	-10.7011
फाइ	-10.7012
▁यमुना	-10.7018
डिय़ों	-10.7019
▁गाँधी	-10.7019
▁काँग्रेस	-10.7019
▁डिवाइस	-10.7019
▁कैलाश	-10.7019
▁फौज	-10.702
▁64	-10.7021
▁इनाम	-10.7022
▁किराया	-10.7022
▁हॉकी	-10.7024
▁शैल	-10.7031
▁गुरू	-10.7033
▁भड़क	-10.7038
▁मायने	-10.7041
पीएल	-10.7041
61	-10.7042
▁हमलावर	-10.7043
अब	-10.7045
▁दब	-10.7048
▁एमएस	-10.7052
▁भोग	-10.7054
▁नियंत्रित	-10.7061
▁बगैर	-10.7061
▁नितिन	-10.7062
▁फायदेमंद	-10.7062
▁मंजिल	-10.7062
▁टोल	-10.7067
pl	-10.7069
हाय	-10.7075
▁बैन	-10.7075
धु	-10.7076
▁खट	-10.7081
▁आलोक	-10.7085
▁ब्लड	-10.7086
▁पीसी	-10.7091
▁आलू	-10.7092
▁जरा	-10.7097
▁रोष	-10.7099
▁ऊना	-10.7101
▁तेंदुलकर	-10.7104
▁ओबामा	-10.7104
▁हस्तक्षेप	-10.7104
▁लापता	-10.7104
द्घ	-10.7105
▁गृहमंत्री	-10.7106
▁कमलनाथ	-10.7107
लोग	-10.7107
SC	-10.7116
▁लगाएं	-10.7116
बैक	-10.712
▁डीसी	-10.7124
▁प्रवाह	-10.7128
▁52	-10.713
IS	-10.7134
▁लेखन	-10.7137
▁जुटे	-10.7137
▁साधा	-10.7143
▁हितों	-10.7144
▁पीछ	-10.7145
▁देखता	-10.7146
▁चिदंबरम	-10.7147
▁माइक्रो	-10.7147
▁पौधे	-10.7147
▁इशारा	-10.7147
▁मेहमान	-10.7147
▁तुलसी	-10.7147
▁फट	-10.715
▁ब्रह्मा	-10.7156
ैया	-10.7156
फुल	-10.7161
▁फर्क	-10.7161
▁अशी	-10.7165
▁अर्पित	-10.7178
▁शूट	-10.7182
▁नवरात्र	-10.7184
▁अनंत	-10.7189
▁स्नातक	-10.7189
▁हॉल	-10.7191
▁अधीन	-10.7194
▁सौदे	-10.7195
▁चौके	-10.7196
▁ठहरा	-10.7197
एनएस	-10.7199
▁मुआवजा	-10.7208
▁दांत	-10.7211
▁एससी	-10.7214
▁58	-10.7225
▁पदार्थों	-10.7226
44	-10.7227
▁फर्	-10.7231
▁छेड़छाड़	-10.7233
▁शुभारंभ	-10.7233
▁भास्कर	-10.7233
▁पहना	-10.7242
ci	-10.7242
▁सॉ	-10.7245
▁डै	-10.7245
▁उठाते	-10.7248
प्‍त	-10.7248
▁दावेदार	-10.7263
▁अध्यापकों	-10.7264
▁औपचारिक	-10.7276
▁कार्यकारिणी	-10.7276
▁जनसंख्या	-10.7276
▁पाइप	-10.7276
▁फतेह	-10.7276
▁राजमार्ग	-10.7278
▁सिर्फ़	-10.728
▁ज्ञात	-10.7281
चित्र	-10.7285
▁वॉर	-10.7286
ाधीन	-10.7287
कर्मियों	-10.7294
▁यूपीए	-10.7295
डीआर	-10.7298
▁वेस्ट	-10.7298
▁फेल	-10.7301
स्को	-10.7302
बड़े	-10.7303
▁एरिया	-10.7306
▁प्रोडक्ट	-10.7319
▁रोमांच	-10.7319
▁अड्डे	-10.7319
▁विडियो	-10.732
▁येथे	-10.732
▁अमृत	-10.7321
▁ज्योतिष	-10.7322
डोर	-10.7324
72	-10.7324
▁एनडीए	-10.7324
▁अनशन	-10.7332
▁घिर	-10.7339
ice	-10.7339
▁मिलियन	-10.7342
▁अतः	-10.7344
▁370	-10.7348
▁मेरठ	-10.7363
aj	-10.7366
▁अजीब	-10.7366
▁गरीबी	-10.7367
▁नीलामी	-10.7367
34	-10.737
▁फोर्स	-10.7372
तंत्र	-10.7372
▁प्राय	-10.7373
▁झाला	-10.7377
▁फु	-10.7378
बिन	-10.738
▁शायर	-10.7381
▁फंसे	-10.7383
ंजलि	-10.739
▁कॉन्फ्रेंस	-10.7407
▁नियामक	-10.7407
▁सब्सिडी	-10.7407
▁अफवाह	-10.7407
▁दीक्षित	-10.7407
:00	-10.7408
▁मल्टी	-10.7409
▁साइंस	-10.7411
▁तत्वों	-10.7416
वळ	-10.7419
▁कैच	-10.7424
▁आदित्य	-10.7426
▁क्लीन	-10.7435
भू	-10.7438
▁बदमाश	-10.744
जिस	-10.7449
▁छापेमारी	-10.7451
▁सोसायटी	-10.7451
▁वक़्त	-10.7451
▁सरस्वती	-10.7451
▁हेल्थ	-10.7451
▁चुदाई	-10.7451
▁एसएसपी	-10.7451
▁कनाडा	-10.7451
▁शाहिद	-10.7451
▁फीसद	-10.7455
▁पहने	-10.7456
▁मंदी	-10.7458
्‍यू	-10.7462
▁इंस्ट	-10.7462
ity	-10.7463
▁वॉल	-10.7468
mi	-10.7469
ion	-10.7471
▁सैल	-10.7471
▁Ka	-10.7474
▁पार्किंग	-10.7474
▁शोक	-10.7486
▁जौहर	-10.7495
▁धातु	-10.7495
▁घबरा	-10.7496
▁चर्च	-10.7497
▁कम्पनी	-10.7501
▁अलर्ट	-10.7502
▁सेंसर	-10.7505
ैक्स	-10.7511
▁संपूर्ण	-10.7514
▁मीना	-10.7515
▁आलम	-10.7521
▁कंप	-10.7524
पूर्ति	-10.7529
▁उठाकर	-10.7532
▁51	-10.7534
खु	-10.7537
▁राधा	-10.7539
▁अधिवक्ता	-10.754
▁इच्छुक	-10.754
▁शिरकत	-10.754
▁संतुष्ट	-10.754
च्‍छ	-10.754
▁छक्के	-10.754
▁कंगना	-10.754
डीसी	-10.7542
▁बॉल	-10.7546
प्रो	-10.7554
भाजपा	-10.756
ary	-10.7563
वार्ता	-10.7565
▁डेरा	-10.757
द्वार	-10.7577
▁अभियंता	-10.7584
▁परिचालन	-10.7584
▁प्रिंट	-10.7584
▁स्पीड	-10.7585
▁ट्रांसफर	-10.7585
▁फ्लाइट	-10.7586
▁किराए	-10.7587
▁UP	-10.7588
▁उन्नत	-10.759
▁स्टूडेंट्स	-10.7591
▁नायक	-10.7596
▁रामदेव	-10.7604
▁देनी	-10.761
▁दुर्ग	-10.7614
▁सिंगल	-10.7616
▁तिर	-10.7618
▁ब्रह्म	-10.762
▁उलझ	-10.7621
्ट्र	-10.7625
▁आकर्षक	-10.7629
▁दाखल	-10.763
▁किंग्स	-10.7631
▁सदस्यता	-10.7634
▁85	-10.7636
▁स्‍व	-10.7637
▁पांव	-10.7644
▁आतंक	-10.7645
▁दिनांक	-10.7646
ँग	-10.7667
श्च	-10.767
▁आवंटन	-10.7674
▁काउंसिल	-10.7674
▁जिलाधिकारी	-10.7674
▁ग्रंथ	-10.7674
▁इलेक्ट्रिक	-10.7674
नुसार	-10.7675
▁ससुराल	-10.7675
▁बुद्ध	-10.7678
▁अनुदान	-10.7679
▁सैफ	-10.7684
▁बालिका	-10.769
प्रकाश	-10.7696
ीकृत	-10.7698
▁माल्या	-10.7711
▁संयोजक	-10.7719
▁दरवाजे	-10.7719
▁ऊंची	-10.772
००	-10.7724
▁प्रसारण	-10.7724
▁भूषण	-10.7726
▁झलक	-10.7727
76	-10.7728
▁आखिरकार	-10.7732
▁2004	-10.7732
▁सिद्धू	-10.7735
▁नतीज	-10.7738
▁राजू	-10.7738
51	-10.7739
बेट	-10.7743
▁करीना	-10.7747
▁प्रशंसक	-10.7765
▁निरीक्षक	-10.7765
▁कॉलोनी	-10.7765
▁आपराधिक	-10.7765
▁जश्न	-10.7765
▁ज़मीन	-10.7765
▁रोहतक	-10.7766
▁दलाल	-10.7768
▁सचिवालय	-10.7769
▁शासकीय	-10.7769
▁सतर्क	-10.7769
▁क्षण	-10.7769
दूर	-10.7773
▁कैफ	-10.7773
▁दलील	-10.7774
ah	-10.7781
▁स्किन	-10.7784
▁उपलब्धि	-10.7797
68	-10.7797
▁सदी	-10.7799
▁रॉय	-10.78
▁जोड़े	-10.781
▁तृतीय	-10.781
▁फुटबॉल	-10.781
▁जॉब	-10.7811
▁औषध	-10.7811
▁श्रद्धांजलि	-10.7811
▁पोर्टल	-10.7812
▁सेकेंड	-10.7812
▁गुलाम	-10.7813
▁तहसीलदार	-10.7814
ast	-10.783
▁दादा	-10.7835
▁हथियारों	-10.7837
▁गेंदबाजों	-10.7853
ाध्यक्ष	-10.7855
▁प्रत्याशियों	-10.7856
▁मैनेजमेंट	-10.7856
▁युवराज	-10.7856
▁लक्ष्मण	-10.7856
▁व्यावसायिक	-10.7856
▁प्रोसेस	-10.7857
▁अवतार	-10.7857
भेद	-10.7857
ep	-10.7861
▁राष्ट्रवादी	-10.7862
▁मुर्	-10.7864
तोड़	-10.788
ट्टी	-10.7881
रेख	-10.7884
▁उतनी	-10.7887
▁पैन	-10.789
52	-10.7892
्लू	-10.7893
▁ढो	-10.7894
▁परिस्थिति	-10.7901
ry	-10.7901
▁भीषण	-10.7902
▁आकर्षण	-10.7902
▁इलेक्ट्रॉनिक	-10.7902
▁कुरुक्षेत्र	-10.7902
▁तीव्र	-10.7902
▁प्रशंसा	-10.7902
▁घोटाला	-10.7902
▁जनसभा	-10.7902
▁धमाके	-10.7902
▁ईंधन	-10.7903
▁ऑर्डर	-10.7903
न्ध	-10.7907
▁पहाड़ी	-10.7911
46	-10.7917
▁दाव	-10.7918
64	-10.7919
-12	-10.7922
▁भूत	-10.7928
▁केंद्रित	-10.7947
▁धोखाधड़ी	-10.7949
▁पारिवारिक	-10.7949
▁तुर्की	-10.7949
▁असल्याचे	-10.795
्टन	-10.7951
लाइट	-10.7952
▁लड़कों	-10.7956
▁डेस्क	-10.7958
स्टिक	-10.7958
▁अनि	-10.7958
ांश	-10.7962
▁घटकर	-10.7964
▁कबीर	-10.7968
▁कामयाबी	-10.797
▁उठाना	-10.7971
ine	-10.7975
सीएल	-10.7983
▁कृति	-10.7989
mo	-10.7989
ॉक्स	-10.7994
▁आडवाणी	-10.7995
▁तुम्हारी	-10.7995
▁प्रयत्न	-10.7995
▁पैसों	-10.7996
▁ऑयल	-10.7998
▁अंब	-10.7999
▁लिखकर	-10.7999
▁लगाये	-10.8001
▁भावनाओं	-10.8011
iv	-10.8035
▁छुटकारा	-10.8042
▁दिग्विजय	-10.8042
▁आंतरिक	-10.8042
▁रिश्ता	-10.8042
▁देखभाल	-10.8042
▁चैंपियनशिप	-10.8042
▁बेशक	-10.8043
▁लायक	-10.8043
अर्चना	-10.805
▁रिक्त	-10.8051
▁मदन	-10.806
▁09	-10.8063
▁पद्म	-10.8064
▁गुम	-10.807
ाधिक	-10.8074
▁बनते	-10.8083
▁BJP	-10.8089
▁अतिक्रमण	-10.8089
▁गवर्नर	-10.8089
▁डेविड	-10.8089
▁जगदीश	-10.8089
▁बोतल	-10.809
▁हिसार	-10.8093
▁कीजिए	-10.8094
▁वस्तुओं	-10.81
▁2006	-10.81
▁पासपोर्ट	-10.8101
वामा	-10.8101
दिन	-10.8107
▁बंट	-10.8112
▁भजन	-10.8113
▁डालें	-10.8121
▁भाषाओं	-10.8123
▁लेवल	-10.8125
:30	-10.8136
▁एग्जाम	-10.8136
▁नायडू	-10.8136
▁रसोई	-10.8136
▁वरुण	-10.8136
▁आकलन	-10.8136
▁किंतु	-10.8137
▁मतभेद	-10.8137
▁गुजार	-10.8139
पर्यंत	-10.8143
▁De	-10.8145
▁वाढ	-10.8163
लेकिन	-10.8163
43	-10.8166
▁कक्ष	-10.8173
▁घुसपैठ	-10.8183
▁तृणमूल	-10.8183
▁कालोनी	-10.8184
▁68	-10.8186
▁53	-10.8188
▁निधि	-10.8201
▁लाए	-10.8205
▁बेंच	-10.8206
▁रतन	-10.8221
▁बैनर	-10.8224
▁तोड़ने	-10.8227
▁कड़े	-10.8228
दायक	-10.8228
▁पाठ्यक्रम	-10.8231
▁बदौलत	-10.8231
▁विश्लेषक	-10.8231
▁सुल्तान	-10.8231
▁तसेच	-10.8231
▁स्पिनर	-10.8231
▁प्रतिनिधित्व	-10.8232
▁कुर्सी	-10.8243
day	-10.826
▁राउंड	-10.8265
अत्यधिक	-10.8279
▁टाइगर	-10.8279
▁हेक्टेयर	-10.8279
▁स्मिथ	-10.8279
▁क्राइम	-10.8279
▁घुटन	-10.8279
▁न्यायमूर्ति	-10.8279
▁मेडल	-10.8282
▁बनेगा	-10.8285
200	-10.8291
▁ढाई	-10.8298
▁आरती	-10.831
ट्टा	-10.8313
फिर	-10.8313
ासाठी	-10.8322
▁उत्पादक	-10.8323
▁ट्रॉफी	-10.8327
▁विश्‍व	-10.8327
▁काफ़ी	-10.8334
▁कारोबारियों	-10.8335
▁कूद	-10.8339
▁खाद	-10.8342
▁सर्च	-10.8344
▁तबाह	-10.8357
द्दा	-10.8364
▁अंकित	-10.8368
▁अद्भुत	-10.8375
▁निदेशालय	-10.8375
▁उजागर	-10.8375
▁रजिस्टर	-10.8375
▁लंबित	-10.8375
▁ब्लाक	-10.8378
▁ब्रांच	-10.8378
▁जिलाध्यक्ष	-10.8378
▁स्पेन	-10.8382
▁एसिड	-10.8382
▁क्रिस	-10.8389
दैव	-10.839
निर्माण	-10.8404
ru	-10.8405
▁जेएनयू	-10.8424
▁फाउंडेशन	-10.8424
▁नीरज	-10.8424
▁रजत	-10.8424
▁कुशल	-10.8424
▁फ़ोन	-10.8429
▁धोखा	-10.8429
▁सहकारी	-10.8431
▁शुक्ल	-10.8432
▁बंधन	-10.8434
▁तेज़	-10.8436
▁शरण	-10.8441
ind	-10.845
▁लक	-10.8463
▁चलाई	-10.8466
▁जुटी	-10.8468
▁उपन्यास	-10.8473
▁प्रतिष्ठित	-10.8473
▁झटके	-10.8473
▁सुन्दर	-10.8473
▁जबरन	-10.8474
▁पैदल	-10.8476
देख	-10.8481
▁बेचा	-10.8484
▁2005	-10.8486
त्मक	-10.8487
पुट	-10.8492
sp	-10.8494
▁वोटिंग	-10.8501
▁तप	-10.8505
फ्यू	-10.8512
▁दायित्व	-10.8522
▁दूरसंचार	-10.8522
▁हकीकत	-10.8522
▁क्वार्टर	-10.8522
▁नौजवान	-10.8522
▁कर्तव्य	-10.8522
▁आलिया	-10.8528
▁रामपुर	-10.8528
▁पिला	-10.8531
▁ऐंड	-10.8545
▁जिल्ह्या	-10.8571
▁पंजीकरण	-10.8571
▁सेल्सियस	-10.8571
▁पॉलिसी	-10.8571
▁दहेज	-10.8572
▁स्टैंड	-10.8572
▁छेड़	-10.8575
▁भक्ति	-10.8582
▁To	-10.8582
wa	-10.8583
▁सराहना	-10.8591
▁तरंग	-10.8592
▁उग्र	-10.8594
ड़ीसि	-10.8602
▁उमेश	-10.8606
ण्याचा	-10.8614
our	-10.8619
▁शैक्षणिक	-10.862
▁गिरोह	-10.8621
▁नम्बर	-10.8621
▁उत्‍	-10.8622
▁स्वभाव	-10.8624
अगर	-10.8625
▁विभागीय	-10.863
▁कपड़ा	-10.8641
▁क्‍या	-10.8647
▁भाजप	-10.8647
▁जादू	-10.8652
▁रोटी	-10.8655
▁सांप	-10.8655
▁श्रीराम	-10.8656
▁सोचते	-10.867
news	-10.867
▁भारद्वाज	-10.867
▁स्थगित	-10.867
▁शून्य	-10.867
▁सिंगापुर	-10.867
▁मूल्यांकन	-10.867
▁आशीष	-10.867
▁आईएएस	-10.867
▁बाज़ार	-10.867
▁यांना	-10.8676
▁प्रदेशाध्यक्ष	-10.8678
श्म	-10.8685
▁नमाज	-10.8702
ill	-10.8703
▁यंत्र	-10.8707
जुल	-10.871
मुक्त	-10.8712
▁लख	-10.8713
▁फीट	-10.8716
वृत्ति	-10.8717
ni	-10.8718
▁आक्रोश	-10.872
▁बेंगलुरु	-10.872
▁विद्वान	-10.872
▁समन्वय	-10.872
▁गोलीबारी	-10.872
▁घटनास्थल	-10.872
▁गर्ल	-10.8721
समय	-10.8727
िष्ठा	-10.8732
▁कमीशन	-10.8733
▁स्वीकृति	-10.8733
▁रोम	-10.8741
▁कमांडर	-10.8741
ऩ	-10.8743
▁मोठ	-10.8753
▁दशा	-10.8756
▁जिसको	-10.8764
▁सेवक	-10.8767
▁मोर्चे	-10.877
▁हिन्दु	-10.8771
▁रथ	-10.8771
▁मोड	-10.8772
▁प्रारूप	-10.8773
धर्म	-10.8777
▁झील	-10.8779
▁स्पीकर	-10.8794
▁बुरे	-10.8795
मार्क	-10.8797
▁डॉट	-10.8809
▁वृद्ध	-10.8813
▁दर्शक	-10.8817
ऋ	-10.8821
▁एहसास	-10.8821
▁फिटनेस	-10.8821
▁जोधपुर	-10.8821
▁ओमप्रकाश	-10.8821
▁गर्भवती	-10.8822
▁यूएस	-10.8822
▁फूट	-10.8822
▁मुहिम	-10.8822
ब्बा	-10.8825
▁फ्रंट	-10.883
ोगे	-10.8833
53	-10.8846
्यूशन	-10.8849
▁अल्प	-10.8859
▁दोनो	-10.886
▁थोड़े	-10.8872
▁रिश्वत	-10.8872
इन्होंने	-10.8872
▁पेशेवर	-10.8872
▁पसंदीदा	-10.8872
▁सुरेंद्र	-10.8875
ick	-10.8877
▁चर्चित	-10.8882
▁उदार	-10.8883
▁बोल्ड	-10.8885
▁बाघ	-10.8895
वर्ग	-10.8902
▁बाबर	-10.891
▁अवॉर्ड	-10.8923
▁गुस्से	-10.8923
▁उछाल	-10.8923
▁हत्याकांड	-10.8923
▁मछली	-10.8923
▁रमन	-10.8923
▁दीजिए	-10.8923
▁काउंट	-10.8923
▁साइबर	-10.8925
▁शिशु	-10.8927
▁प्रतिनिधियों	-10.8927
▁ढक	-10.8928
▁कोयला	-10.8929
▁मुझ	-10.8931
▁बिज	-10.8935
▁बस्ती	-10.8938
▁गर्ग	-10.8938
▁उठता	-10.8939
▁घड़ी	-10.8952
गृह	-10.8965
▁पैनल	-10.8965
▁उतरने	-10.897
▁कांस्टेबल	-10.8974
▁अवकाश	-10.8974
▁अमृतसर	-10.8976
▁चुरा	-10.8977
▁चाकू	-10.8977
▁वीरेंद्र	-10.8977
▁अनोख	-10.8979
▁ईमेल	-10.8981
▁दरबार	-10.8987
▁खरीदारी	-10.8992
54	-10.8992
ain	-10.8999
▁प्रस्तुति	-10.8999
▁भंग	-10.9
▁गैंगरेप	-10.9026
▁कैथल	-10.9026
▁कपड़ों	-10.9026
▁सहारे	-10.9026
▁अभय	-10.9026
▁कांगड़ा	-10.9026
▁तले	-10.9027
▁ट्रम्प	-10.9029
▁Pro	-10.9032
▁अक्षर	-10.9032
▁योजनाएं	-10.9042
▁पड़ेगी	-10.9047
राष्ट्रीय	-10.9061
▁सदस्यीय	-10.9065
▁लिखते	-10.9067
▁आचार	-10.9076
▁वायुसेना	-10.9077
▁सीरियल	-10.9077
▁अरोड़ा	-10.9077
▁अब्दुल्ला	-10.9077
▁शत्रु	-10.9078
▁बकाया	-10.9078
▁दीपावली	-10.9078
▁परम्परा	-10.9078
क्षेप	-10.9079
▁फील्ड	-10.908
▁गोविंद	-10.9081
▁तंज	-10.9084
▁चौथा	-10.9085
▁आंखें	-10.9089
▁कहें	-10.9089
▁कुलपति	-10.9089
▁गोलियां	-10.9093
▁चाचा	-10.9097
▁निभाने	-10.9101
पद्मावत	-10.9107
▁निभाई	-10.9116
▁पकड़ने	-10.9116
ba	-10.9118
▁कम्प	-10.9127
▁More	-10.9129
▁ग्वालियर	-10.9129
▁अल्लाह	-10.913
▁साक्षी	-10.913
▁स्वयंसेवक	-10.913
▁शुभकामनाएं	-10.9131
▁रोचक	-10.9133
िंदा	-10.9141
▁हाईवे	-10.9142
▁वाय	-10.9145
▁ज़रूर	-10.915
▁दिलाया	-10.916
▁चिट्ठ	-10.9182
▁प्रमोशन	-10.9182
▁उत्तम	-10.9182
▁बहुजन	-10.9188
▁माफिया	-10.919
▁खन्ना	-10.9194
▁भ्रम	-10.9229
्‍ला	-10.9233
▁क्विंटल	-10.9234
▁प्रोत्साहन	-10.9234
▁खुफिया	-10.9234
▁सिलेंडर	-10.9234
▁बजरंग	-10.9235
▁सोनम	-10.9236
▁स्पेस	-10.924
▁मिश्रण	-10.9247
▁इन्द्र	-10.9247
▁बाय	-10.9247
▁पुलिसकर्मियों	-10.9248
▁गणना	-10.9255
▁तर्ज	-10.9256
▁इतर	-10.9258
▁मैक्स	-10.927
ृति	-10.9271
▁अरे	-10.9275
▁फैलाने	-10.9282
न्‍न	-10.9283
▁साधना	-10.9283
▁शासक	-10.9285
▁120	-10.9286
▁सृजन	-10.9287
▁टाइप	-10.9287
▁तीर्थ	-10.9288
▁घुमा	-10.9289
▁सुनते	-10.9297
▁दिखाते	-10.9298
▁गाइड	-10.9303
▁उदास	-10.9304
app	-10.9306
▁नक्सलिय	-10.9308
भाई	-10.9308
▁सुमित	-10.9309
▁राज्‍य	-10.9313
▁पृष्ठ	-10.934
▁पाकिस्‍तान	-10.9341
▁नींबू	-10.9341
▁सहवाग	-10.9341
▁हरिद्वार	-10.9341
▁वरना	-10.9342
▁खातों	-10.9342
▁उपयुक्त	-10.9349
▁महादेव	-10.9352
▁दिलाई	-10.9353
▁बुकिंग	-10.9355
▁प्रचल	-10.9355
ana	-10.9357
▁बटन	-10.9363
▁हिला	-10.9363
▁पहलू	-10.9376
58	-10.9377
मोहन	-10.9387
▁गडकरी	-10.9394
▁महानिदेशक	-10.9394
▁जडेजा	-10.9394
▁सुपरस्टार	-10.9394
▁डीएसपी	-10.9394
▁वास्तु	-10.9394
▁संरचना	-10.9394
▁चिंतित	-10.9394
▁सोलन	-10.9395
ग्रे	-10.9397
▁फुटेज	-10.9398
▁अजीत	-10.9404
▁गिनती	-10.9408
येंगे	-10.9409
राष्ट्र	-10.9426
▁2002	-10.9428
▁कैंट	-10.9433
▁पीड़ा	-10.9442
▁पड़ोस	-10.9444
▁पारंपरिक	-10.9448
▁विरासत	-10.9448
▁स्ट्राइक	-10.9448
▁कठोर	-10.9448
ari	-10.9448
▁सर्दी	-10.9448
▁वस्त्र	-10.9448
ang	-10.9448
▁नदियों	-10.9449
▁लकड़ी	-10.9451
ff	-10.9453
▁जनहित	-10.9456
▁सुरक्षाबल	-10.9469
बर्ग	-10.9477
▁इराक	-10.9501
▁loading	-10.9502
▁गहलोत	-10.9502
▁विद्रोह	-10.9502
▁एजेंट	-10.9502
▁हेमंत	-10.9502
▁कुंभ	-10.9502
आरएस	-10.9502
▁पुनः	-10.9505
▁बदनाम	-10.9505
▁An	-10.951
▁दुबे	-10.9512
fi	-10.9513
▁राइट	-10.9519
▁प्रवृत्ति	-10.952
▁कॉपी	-10.953
▁सुर्खियों	-10.9556
▁गारंटी	-10.9556
▁कस्बे	-10.9556
▁प्रतिरोध	-10.9556
▁वाकई	-10.9557
▁एकत्रित	-10.9557
▁बर्तन	-10.9558
▁सूबे	-10.9565
▁पेमेंट	-10.9567
सिम	-10.9576
▁साइन	-10.9578
▁दिखाए	-10.9579
▁तंग	-10.959
▁प्रथा	-10.9594
▁be	-10.9606
▁दृष्टिकोण	-10.9611
▁निर्दलीय	-10.9611
▁महागठबंधन	-10.9611
▁बिल्डिंग	-10.9611
▁सिपाही	-10.9611
▁तालुक्या	-10.9611
▁जटिल	-10.9611
▁प्रिंस	-10.9611
▁सेवानिवृत्त	-10.9611
▁प्रसार	-10.9611
▁एक्टिव	-10.9613
>	-10.9613
▁फर्म	-10.9619
▁कुत्ते	-10.9621
▁रैम	-10.9627
▁सस्ता	-10.9632
▁बनारस	-10.9642
▁अनुशासन	-10.9666
▁आक्रामक	-10.9666
▁आन्दोलन	-10.9666
▁कश्यप	-10.9666
▁कृपया	-10.9666
▁दुर्भाग्य	-10.9666
▁चैलेंज	-10.9666
▁हिंसक	-10.9666
▁दुबई	-10.9666
▁इटली	-10.9666
ेआम	-10.9667
▁शॉर्ट	-10.9667
▁मार्गदर्शन	-10.9668
▁राशिफल	-10.967
▁प्राचार्य	-10.9673
टेंशन	-10.9675
▁गुहार	-10.9678
▁माया	-10.9679
▁प्लेट	-10.968
▁राज्यमंत्री	-10.9681
व्यवस्था	-10.9707
▁चोद	-10.9711
▁250	-10.9714
पंच	-10.9719
▁भ्रष्ट	-10.9721
▁फडणवीस	-10.9721
▁मथुरा	-10.9721
▁सॉफ्टवेयर	-10.9721
▁रेड्डी	-10.9721
▁बुखार	-10.9722
▁बाबत	-10.9722
▁परेशानियों	-10.9722
▁इकट्ठा	-10.9733
▁हरीश	-10.9749
▁उन्हे	-10.9759
▁मदर	-10.9771
▁लोकतांत्रिक	-10.9777
▁श्रेष्ठ	-10.9777
▁सभ्यता	-10.9777
▁स्पर्धा	-10.9777
कॉमर्स	-10.978
▁वादे	-10.9782
▁जायजा	-10.9787
▁माँग	-10.9792
▁शहद	-10.9801
▁अन्न	-10.9802
▁साधु	-10.9808
▁कमाने	-10.981
▁टेक्नोलॉजी	-10.9832
▁दुल्हन	-10.9832
able	-10.9835
▁pro	-10.9835
▁ठहराया	-10.9841
▁बंदूक	-10.9841
▁प्रारंभिक	-10.9846
▁गुफा	-10.9847
दयाल	-10.9854
▁पाएगा	-10.9861
ear	-10.987
▁व्यय	-10.9877
▁लैस	-10.9878
▁गांगुली	-10.9889
▁आध्यात्मिक	-10.9889
▁प्रीमियर	-10.9889
▁ख़त्म	-10.9889
▁भरोसे	-10.9889
▁प्रोटीन	-10.9889
▁जनजाति	-10.989
▁श्वेत	-10.9891
ide	-10.9903
▁त्याच	-10.9908
▁फरमा	-10.9913
▁फंसा	-10.9915
▁अन्यथा	-10.9918
▁विधा	-10.9924
▁तिलक	-10.9929
▁अहसास	-10.9945
▁दिव्यांग	-10.9945
▁संशोधित	-10.9945
▁अम्बाला	-10.9945
▁भौतिक	-10.9945
▁तस्करी	-10.9945
▁खट्टर	-10.9946
▁ढांचे	-10.9946
ुल्लाह	-10.9947
▁शिफ्ट	-10.9949
▁श्रीकृष्ण	-10.9951
ल्याचे	-10.9956
ja	-10.996
▁स्वीकृत	-10.9989
▁शॉ	-10.9993
ोत्सव	-11.0001
▁अख्तर	-11.0002
▁रजिस्ट्रेशन	-11.0002
▁गंदगी	-11.0002
▁उद्धव	-11.0002
▁वृक्ष	-11.0002
▁श्रीदेवी	-11.0002
▁हाजिर	-11.0002
▁बिंदु	-11.0003
▁जासूस	-11.0009
▁उदयपुर	-11.001
▁यावेळी	-11.0011
▁आपातकाल	-11.0014
▁भागवत	-11.0014
ran	-11.0017
▁मानवीय	-11.0027
▁लड़ाक	-11.0032
▁विलय	-11.0049
▁मोहित	-11.0054
ड्ढ	-11.0057
▁अर्धशतक	-11.0059
▁शताब्दी	-11.0059
▁अंसारी	-11.0059
▁अग्रणी	-11.0059
▁संबोधन	-11.0059
▁हल्दी	-11.0059
▁वायरस	-11.006
▁पर्दे	-11.006
▁त्रिपुरा	-11.0061
ेन्ट	-11.0064
▁पांचवें	-11.0087
▁सीधी	-11.0089
▁कुत्त	-11.0094
▁विहार	-11.0098
पुत्र	-11.0102
IC	-11.0104
नारायण	-11.0105
▁पादुकोण	-11.0117
▁म्यूजिक	-11.0117
▁मलेशिया	-11.0117
▁सौंदर्य	-11.0117
▁पर्सनल	-11.0117
▁प्लस	-11.0118
संख्य	-11.0118
▁महीना	-11.0118
▁मौर्य	-11.0119
▁महानगर	-11.0136
▁ठहर	-11.0144
▁वैसा	-11.0144
▁प्रतिबंधित	-11.0149
न्‍ह	-11.015
▁पुण्य	-11.0154
▁उपाध्याय	-11.0174
▁गाजियाबाद	-11.0174
▁प्रोत्साहित	-11.0174
▁सम्पन्न	-11.0174
▁दुःख	-11.0174
▁संतुलन	-11.0174
▁तरुण	-11.0175
▁व्हाइट	-11.0176
▁संज्ञान	-11.0179
▁धूल	-11.0186
▁गहराई	-11.0189
▁राजेन्द्र	-11.019
फॉर्म	-11.0222
▁संवैधानिक	-11.0233
▁बर्फबारी	-11.0233
लॉज	-11.0233
▁खिंच	-11.0233
▁सईद	-11.0234
भक्त	-11.0239
▁संवाददाताओं	-11.0244
▁साहू	-11.0249
नुमा	-11.0251
▁भड़का	-11.0268
▁मज़ा	-11.0271
▁दुआ	-11.0277
▁फैक्ट्री	-11.0291
▁more	-11.0291
▁प्रीमियम	-11.0291
▁उर्दू	-11.0291
▁पेट्रोलियम	-11.0296
▁धाम	-11.0297
▁फ्लोर	-11.0299
▁दमदार	-11.0309
मार्ग	-11.0312
▁मर्द	-11.0336
भोग	-11.0347
ph	-11.0348
▁कम्प्यूटर	-11.035
▁डिस्प्ले	-11.035
▁त्यौहार	-11.035
▁सिंधिया	-11.035
▁हिन्दुस्तान	-11.035
▁वितरित	-11.035
▁गाड़ियों	-11.035
▁मुँह	-11.035
▁ऑप्शन	-11.0351
▁सूचित	-11.0353
▁दबंग	-11.0357
▁अनुवाद	-11.0359
▁बिस्तर	-11.0363
▁उत्साहित	-11.0372
▁दवाओं	-11.0376
go	-11.0379
▁बारीक	-11.0391
▁कमांड	-11.0391
▁किस्मत	-11.0393
ध्यक्ष	-11.0398
▁मजिस्ट्रेट	-11.0409
▁स्वाभाविक	-11.0409
▁पाँच	-11.0409
ight	-11.0409
▁दखल	-11.041
▁ढांचा	-11.041
▁con	-11.0413
▁निरस्त	-11.0415
▁सेकंड	-11.0419
▁पंक्ति	-11.0421
▁निर्माताओं	-11.0423
सिंघ	-11.0462
ाइव	-11.0467
कुछ	-11.0467
▁सिक्योरिटी	-11.0469
▁मुकदमे	-11.0469
▁प्रमोद	-11.0469
▁मम्मी	-11.0469
▁ट्रैक्टर	-11.047
▁शिंदे	-11.0472
▁मिसाल	-11.0472
▁सबकुछ	-11.0473
▁रेफर	-11.0475
▁पुलिसकर्मी	-11.0489
▁शिवपाल	-11.049
▁हार्ट	-11.0498
▁संन्यास	-11.0528
▁इलेवन	-11.0528
▁मिठाई	-11.0528
▁अटैक	-11.0528
▁हल्के	-11.0528
▁सेल्फी	-11.0529
▁प्रतिनिधिमंडल	-11.0529
▁पचास	-11.0529
▁लियोन	-11.0531
तादाद	-11.0535
ऊंगा	-11.0536
▁प्रजाति	-11.0538
प्रिय	-11.0557
▁वीजा	-11.056
▁झाड़	-11.0561
▁पासवान	-11.0572
▁बजाए	-11.0576
▁तकलीफ	-11.0586
▁दही	-11.0587
▁चुनौतियों	-11.0589
▁स्पोर्ट्स	-11.0589
▁अनदेखी	-11.0589
▁डेब्यू	-11.0589
▁त्यांच्या	-11.0589
▁पंख	-11.0589
▁कंधे	-11.0589
▁Updated	-11.0589
▁इसलिये	-11.0589
▁बायो	-11.0593
▁उपमंडल	-11.0593
▁पार्टियां	-11.0593
und	-11.0598
▁छुपा	-11.0599
▁मातृ	-11.0599
▁कारवाई	-11.06
▁चौंक	-11.061
▁बहू	-11.0612
▁कारगर	-11.0615
▁जीवित	-11.0618
bl	-11.0626
ance	-11.0632
▁टेलीविजन	-11.0649
▁बुमराह	-11.0649
▁बैडमिंटन	-11.0649
▁सम्बंधित	-11.0649
▁दुरुस्त	-11.0649
▁बाधित	-11.0649
▁सस्ते	-11.065
▁सिंधु	-11.065
्याच्या	-11.0653
▁कहानियों	-11.0656
▁बढ़ेगी	-11.066
▁डबल	-11.0666
▁बचाओ	-11.0668
▁कर्ण	-11.0671
▁रिलीज़	-11.0672
man	-11.0675
▁संभावनाएं	-11.0677
▁सीमेंट	-11.0687
योजित	-11.0689
र्ध्य	-11.069
▁स्टडी	-11.0704
एआई	-11.0708
▁ज़िम्मेदार	-11.071
▁आवंटित	-11.071
▁ग्राउंड	-11.071
▁मुख्यातिथि	-11.071
▁अजमेर	-11.071
▁तहरीर	-11.071
▁गुरुग्राम	-11.0713
▁तमिल	-11.0716
▁भ्रमण	-11.0717
▁गहरे	-11.0722
▁नकद	-11.073
TE	-11.0739
िस्म	-11.074
▁गेल्या	-11.0747
▁तीस	-11.075
100	-11.0759
ल्यानंतर	-11.0765
▁अभ्यर्थियो	-11.0772
▁एजुकेशन	-11.0772
▁पुरूष	-11.0772
▁सियासत	-11.0772
▁मरम्मत	-11.0772
▁हल्की	-11.0772
▁बेहोश	-11.0772
▁कोविंद	-11.0773
▁विनय	-11.0773
▁बटोर	-11.0774
▁आदिवासियों	-11.0779
▁निगाह	-11.078
▁ठेव	-11.0782
▁बन्द	-11.0796
▁जूते	-11.0804
per	-11.0806
mm	-11.0811
ail	-11.0817
शियल	-11.0821
▁अभिव्यक्ति	-11.0833
▁असिस्टेंट	-11.0833
▁पंजीकृत	-11.0833
▁मुसीबत	-11.0833
▁अपलोड	-11.0833
▁नक्षत्र	-11.0833
▁स्मारक	-11.0833
▁मागणी	-11.0833
निर्वाचित	-11.0833
▁गुर्जर	-11.0833
▁शिवाजी	-11.0834
▁अकाली	-11.0834
▁अनुपात	-11.0836
▁Ex	-11.0836
▁दांव	-11.0838
oll	-11.0846
999	-11.0847
port	-11.0855
▁सतह	-11.0856
▁हटाया	-11.0865
▁सशक्त	-11.0872
▁साइड	-11.0874
▁बैंड	-11.0877
वृत्त	-11.0892
▁उपरोक्त	-11.0895
▁प्रतिस्पर्धा	-11.0895
▁भुवनेश्वर	-11.0895
▁मारुति	-11.0895
▁सांगितले	-11.0895
▁कार्यशाला	-11.0895
▁थोक	-11.0896
▁जबलपुर	-11.0896
▁अंबाला	-11.0897
▁स्टोरेज	-11.09
▁कलेक्शन	-11.0902
▁भावुक	-11.0902
▁पहलवान	-11.0903
▁खीर	-11.0907
▁यमन	-11.0909
▁2.5	-11.0921
अनु	-11.0928
▁हानि	-11.0933
AN	-11.0939
▁लगवा	-11.0943
न्यायिक	-11.0945
nm	-11.0947
शास्त्र	-11.0951
▁श्रद्धालु	-11.0953
▁निर्णायक	-11.0958
▁सांप्रदायिक	-11.0958
▁विभाजन	-11.0958
▁टमाटर	-11.0958
▁जदयू	-11.0958
▁तरीकों	-11.0958
▁प्लेटफॉर्म	-11.0958
▁चंबा	-11.0964
▁प्रखंड	-11.097
▁ख़बरें	-11.0971
▁रणजी	-11.0973
▁फीचर्स	-11.0975
▁पशुओं	-11.0976
▁कुचल	-11.0977
▁पागल	-11.0985
▁कष्ट	-11.0995
▁जिनसे	-11.0996
कांग्रेस	-11.1015
दूषित	-11.1021
▁महामंत्री	-11.1027
ड्यूल	-11.1029
▁बढ़ेगा	-11.1037
ach	-11.104
▁मेजर	-11.1049
india	-11.1052
▁2003	-11.1057
मित्र	-11.1073
▁चमत्कार	-11.1084
▁म्हणून	-11.1084
▁संतृप्त	-11.1084
▁टुडे	-11.1084
▁परामर्श	-11.1084
www	-11.1084
http	-11.1084
▁क्रोध	-11.1084
▁ईसाई	-11.1084
▁प्रेशर	-11.1084
▁रामलीला	-11.1084
▁जाँच	-11.1084
▁बुलंद	-11.1084
▁सपनों	-11.1084
▁दीर्घ	-11.1084
▁कस्टम	-11.1085
▁टायर	-11.1085
▁यमुनानगर	-11.1086
▁ग़लत	-11.1086
▁क्रीम	-11.1098
▁चालान	-11.1104
▁Di	-11.1112
▁शॉट	-11.1115
▁मूड	-11.1118
ंटरनल	-11.1119
▁केशव	-11.112
pur	-11.1139
▁पेस्ट	-11.1141
▁उज्जैन	-11.1148
▁सम्बोधित	-11.1148
▁रुझान	-11.1148
▁उपरांत	-11.1148
▁मेकअप	-11.1148
▁जीडीपी	-11.1148
▁संध्या	-11.1148
▁आंसू	-11.1148
▁लोहा	-11.1148
▁अर्थशास्त्र	-11.1149
▁पहलुओं	-11.1149
▁बिल्ली	-11.1151
▁परिचित	-11.1151
▁वायदा	-11.1152
▁सातवें	-11.1163
▁आएंगी	-11.1174
इलेक्ट्र	-11.1194
▁hindi	-11.1212
▁अंबेडकर	-11.1212
▁न्यूयॉर्क	-11.1212
▁वीरभद्र	-11.1212
▁हिंदुओं	-11.1212
▁सर्जरी	-11.1212
▁इवेंट	-11.1212
▁दिवा	-11.1213
▁सोनीपत	-11.1213
एनसीआर	-11.1214
▁शुगर	-11.1215
▁सम्पूर्ण	-11.1217
▁यज्ञ	-11.1222
▁चाहेंगे	-11.1227
▁शीश	-11.1229
िज्म	-11.123
▁नागपुर	-11.1231
▁पानीपत	-11.1232
ाशय	-11.124
▁महाजन	-11.124
▁पटरी	-11.1244
ांवर	-11.1244
▁ख़ान	-11.1248
मण्डल	-11.1257
क्‍क	-11.1263
पाकिस्तान	-11.1272
▁क्षति	-11.1276
▁इंस्टीट्यूट	-11.1276
▁सीआरपीएफ	-11.1276
▁ईवीएम	-11.1276
▁कौशिक	-11.1276
▁सुधीर	-11.1276
▁शिष्य	-11.1277
▁पृष्ठभूमि	-11.1277
▁जर्मन	-11.1278
▁बुलेट	-11.1281
▁घटनाक्रम	-11.1282
▁ठोक	-11.1291
▁जातियों	-11.1292
फ्ल	-11.1294
▁एक्टिंग	-11.1302
लिखित	-11.1338
जगह	-11.1339
▁तालिबान	-11.1341
▁प्रवर्तन	-11.1341
▁फैमिली	-11.1341
▁फॉलो	-11.1341
▁जितेंद्र	-11.1341
▁फ्रेंड	-11.1341
▁सौरभ	-11.1341
▁ब्लास्ट	-11.1342
▁शक्तिशाली	-11.1343
▁फर्स्ट	-11.1346
भ्र	-11.1355
▁आगमन	-11.1357
▁बूंद	-11.1362
▁भोज	-11.1365
▁Video	-11.1407
▁कवायद	-11.1407
▁रवींद्र	-11.1407
▁साम्राज्य	-11.1407
▁इंडेक्स	-11.1407
▁एसबीआई	-11.1407
▁इस्पात	-11.1407
▁सार्थक	-11.1407
▁ड्रग	-11.1407
▁निजात	-11.1407
▁एनआरसी	-11.141
▁एनएच	-11.1418
सरकार	-11.1418
▁सोनू	-11.1423
▁प्रज्ञा	-11.1427
खेड़ा	-11.1429
▁मुगल	-11.1436
▁अंतर्	-11.1452
▁खेम	-11.1468
एजेंसी	-11.147
शुल्क	-11.147
सेवक	-11.1471
▁सुमन	-11.1472
▁उमेदवार	-11.1472
▁VIDEO	-11.1472
▁मुहम्मद	-11.1472
▁उन्नाव	-11.1473
▁नर्मदा	-11.1473
▁रेवाड़ी	-11.1473
▁डीजीपी	-11.1473
▁पूनम	-11.1473
▁तलवार	-11.1478
▁ऑर्	-11.1489
▁सुधर	-11.1492
▁सस्ती	-11.1492
▁ट्रै	-11.151
▁उबर	-11.1511
▁1.5	-11.1514
▁चंद्रशेखर	-11.1539
▁दहशत	-11.1539
▁द्विपक्षीय	-11.1539
डेसीमल	-11.1539
▁भूपेंद्र	-11.1539
▁विश्वसनीय	-11.1539
://	-11.1539
▁त्यांना	-11.1539
▁फोकस	-11.1539
▁बच्‍च	-11.1539
▁बढऩ	-11.1539
▁सटीक	-11.1539
▁शीतल	-11.1542
ावस्था	-11.1544
▁पक्का	-11.1561
▁HSL	-11.1605
▁उत्कृष्ट	-11.1605
▁कैटरीना	-11.1605
▁टुकड़े	-11.1605
▁शिलान्यास	-11.1605
▁संक्रमण	-11.1605
▁अग्रिम	-11.1605
▁डिमांड	-11.1605
▁कुंडली	-11.1605
▁बंसल	-11.1606
▁अब्बास	-11.1606
▁मुरली	-11.1606
▁प्रभावशाली	-11.1607
▁अस्थि	-11.1608
▁The	-11.1608
▁किडनी	-11.1609
AR	-11.1617
▁प्रसारित	-11.1617
▁अगवा	-11.1622
▁Mar	-11.1626
▁अनजान	-11.1627
▁गुड़	-11.1645
▁धाव	-11.1653
ेटेड	-11.1655
▁ऊंचा	-11.1665
▁आत्मविश्वास	-11.1672
▁म्हणाले	-11.1672
▁गिफ्ट	-11.1672
▁पाठशाला	-11.1672
▁खातिर	-11.1673
▁हॉलीवुड	-11.1673
▁निकासी	-11.1673
▁हिमालय	-11.1673
▁शेट्टी	-11.1674
▁फैन्स	-11.1676
▁भैया	-11.1676
▁महावीर	-11.1682
▁धमका	-11.1696
▁समेट	-11.1724
▁इक्विटी	-11.174
▁डिपार्टमेंट	-11.174
▁दृढ़	-11.174
▁समलैंगिक	-11.174
▁जुलूस	-11.174
▁लाहौर	-11.174
▁एयरटेल	-11.174
▁लम्बे	-11.174
▁आमदनी	-11.174
▁आवेदक	-11.1741
▁नोटिफिकेशन	-11.1741
▁समिती	-11.1741
▁प्रधानाचार्य	-11.1743
▁हलचल	-11.1744
▁सीएए	-11.1744
▁बुध	-11.1746
▁प्यास	-11.1746
▁मसीह	-11.175
▁चिल्ला	-11.1751
▁सैलरी	-11.1753
▁मंशा	-11.176
▁उपहार	-11.1763
IN	-11.1777
विंदर	-11.178
स्तरीय	-11.1793
▁बर्दाश्त	-11.1808
▁बहिष्कार	-11.1808
▁यूट्यूब	-11.1808
▁सामुदायिक	-11.1808
▁झगड़ा	-11.1808
▁नौसेना	-11.1808
▁फूंक	-11.1809
पत्नी	-11.181
▁बिछा	-11.181
▁भाइयों	-11.1812
▁धक्का	-11.1813
▁डाॅ	-11.1822
▁एलान	-11.1847
▁गेस्ट	-11.1861
▁स्टूडेंट	-11.1867
▁इस्तीफे	-11.1877
▁तब्दील	-11.1877
▁निष्पक्ष	-11.1877
▁महिंद्रा	-11.1877
▁बलिदान	-11.1877
▁महापौर	-11.1877
▁ट्यूब	-11.1877
▁छानब	-11.1879
▁समूच	-11.1881
▁इराक़	-11.1881
▁बिखर	-11.1884
▁सानिया	-11.1892
भारतीय	-11.1894
शुदा	-11.1902
▁डिस्क	-11.1902
▁कन्हैया	-11.1946
▁ज़िंदगी	-11.1946
▁लुधियाना	-11.1946
▁इकाइयों	-11.1946
▁एस्टेट	-11.1946
▁अकेला	-11.1946
▁ग्रैंड	-11.1947
▁अतीत	-11.1947
▁समावेश	-11.1947
▁स्नेह	-11.1949
▁स्वार्थ	-11.1954
ace	-11.1961
▁रखेंगे	-11.1975
▁चार्ट	-11.1987
▁ध्रुव	-11.2015
▁इंडोनेशिया	-11.2015
▁ब्रिगेड	-11.2015
▁जलवायु	-11.2015
▁कबड्डी	-11.2015
▁ओबीसी	-11.2015
▁नारियल	-11.2015
▁ब्राजील	-11.2015
▁बीबीसी	-11.2015
▁रिटेल	-11.2015
▁अतुल	-11.2015
▁आर्टिकल	-11.2016
▁सिंगर	-11.2025
▁ऐश्वर्या	-11.2085
▁डिलीवरी	-11.2085
▁दुरुपयोग	-11.2085
▁निर्धारण	-11.2085
▁मस्तिष्क	-11.2085
▁आक्रमण	-11.2085
▁मराठा	-11.2085
▁प्रतिबद्धता	-11.2085
▁महासभा	-11.2085
▁प्रसंग	-11.2087
▁बूढ़	-11.2096
▁फ़िर	-11.2098
▁महंगी	-11.2101
▁संयोग	-11.2102
▁सर्दिय	-11.212
▁अर्ध	-11.2122
पराजित	-11.213
▁आरक्षित	-11.2155
▁रोडवेज	-11.2155
▁मिर्जा	-11.2155
▁शर्मनाक	-11.2155
▁मौलाना	-11.2155
▁लम्बी	-11.2156
▁कांस्य	-11.2157
▁स्पॉट	-11.216
▁उपग्रह	-11.2162
▁चहल	-11.217
▁मददगार	-11.2173
▁यूनि	-11.2196
▁तथाकथित	-11.2226
▁वैकल्पिक	-11.2226
▁दूतावास	-11.2226
▁पूर्णिमा	-11.2226
▁नौकरियों	-11.2226
▁अर्जित	-11.2226
▁नफरत	-11.2227
▁App	-11.2227
▁अगला	-11.2228
“	-11.2229
ाइजेशन	-11.2234
▁वारंट	-11.2235
▁व्यास	-11.2237
ण्याचे	-11.224
▁Con	-11.224
▁समीर	-11.2251
▁अवधारणा	-11.2298
▁सैमसंग	-11.2298
▁इस्राईल	-11.2298
▁गोपनीय	-11.2298
▁डेंगू	-11.2298
▁पलायन	-11.2298
▁सैयद	-11.2298
▁बंगला	-11.2298
▁ट्रायल	-11.2299
छोटे	-11.2301
▁वैद्य	-11.2301
▁महासंघ	-11.2301
▁महाभारत	-11.2305
▁टाइट	-11.2311
▁उधार	-11.2323
▁घोष	-11.2325
▁अय्यर	-11.237
▁लेनदेन	-11.237
▁बघेल	-11.237
▁पायदान	-11.237
▁व्यायाम	-11.237
▁राजदूत	-11.237
▁विनाश	-11.237
▁पुराण	-11.2371
▁असल्याने	-11.2372
▁चौंकाने	-11.2372
▁फटकार	-11.2376
▁अखाड़	-11.2377
दुनिया	-11.2377
▁महंत	-11.239
▁दंपत	-11.2403
▁तुम्हारा	-11.2442
▁लैपटॉप	-11.2442
▁पूर्वोत्तर	-11.2442
▁बिल्डर	-11.2443
▁परमेश्वर	-11.2443
▁अंतरिम	-11.2447
▁जानकारियां	-11.245
ूँगा	-11.245
▁मीणा	-11.2452
▁चीख	-11.2459
▁ट्रेंड	-11.2462
वरील	-11.2513
▁धैर्य	-11.2515
▁मुजफ्फरपुर	-11.2515
▁वाशिंगटन	-11.2515
▁हड़कंप	-11.2515
▁पटियाला	-11.2515
▁संवेदना	-11.2515
▁चुप्पी	-11.2515
▁पाटिल	-11.2515
▁शरणार्थ	-11.2516
▁संयम	-11.2516
▁तिरंगा	-11.2516
जैसे	-11.252
▁रुद्र	-11.252
▁कैमर	-11.2525
▁गरज	-11.2527
▁ज़ोर	-11.2529
▁ससुर	-11.2532
रात्रि	-11.2533
▁ऐक्ट	-11.2535
▁चिकन	-11.2573
▁ऑपरेटर	-11.2589
▁कैपिटल	-11.2589
▁घेऊन	-11.2589
▁धनराशि	-11.2589
▁बॉन्ड	-11.2589
▁स्ट्रीट	-11.2589
▁क्षतिग्रस्त	-11.2589
▁बस्तर	-11.2589
▁कार्बन	-11.2592
iya	-11.2595
▁बिठा	-11.2601
▁अभ्यर्थी	-11.2663
▁प्रॉपर्टी	-11.2663
▁मेगापिक्सल	-11.2663
▁सत्तारूढ़	-11.2663
▁निर्भया	-11.2663
▁मुम्बई	-11.2663
▁नीरव	-11.2663
▁पौधों	-11.2663
▁पोषक	-11.2663
▁वैदिक	-11.2663
▁मोहाली	-11.2663
▁तालमेल	-11.2664
▁प्रतीत	-11.2666
▁अलीगढ़	-11.267
3.5	-11.2672
▁वर्जन	-11.2673
▁महंगे	-11.2674
▁संभाग	-11.2676
▁कम्युनिस्ट	-11.2737
▁चतुर्वेदी	-11.2737
▁प्रशासक	-11.2737
▁फेडरेशन	-11.2737
▁फेस्टिवल	-11.2737
▁हेलीकॉप्टर	-11.2737
▁ओवैसी	-11.2737
▁नगरपालिका	-11.2737
▁पांड्या	-11.2737
▁मनरेगा	-11.2737
▁रसायन	-11.2738
▁क्रमांक	-11.2739
▁भिवानी	-11.2739
▁टैटू	-11.2739
▁अनुपम	-11.274
▁कथन	-11.2741
▁कीर्ति	-11.2742
▁अभियुक्त	-11.2742
▁लिफ्ट	-11.2743
▁For	-11.2746
▁सर्विसेज	-11.2746
▁झंडा	-11.2751
▁झूल	-11.2762
लीवुड	-11.2768
live	-11.277
▁आगाज	-11.2797
▁Hindustan	-11.2812
▁इंग्लिश	-11.2812
▁इमरजेंसी	-11.2812
▁निर्दोष	-11.2812
▁मजेदार	-11.2813
▁एलईडी	-11.2813
▁एनसीपी	-11.2813
▁जानलेवा	-11.2813
▁मौलिक	-11.2813
▁ऑडियो	-11.2813
▁शुमार	-11.2814
▁मुल्क	-11.2815
▁देवगन	-11.2819
▁by	-11.2822
▁ट्रोल	-11.2823
▁2001	-11.2835
▁क्योकि	-11.2888
▁वेरिएंट	-11.2888
▁प्रारम्भ	-11.2888
▁प्रतिभागियों	-11.2888
▁नींव	-11.2889
स्थिति	-11.2909
▁Vi	-11.2948
▁आयुष्मान	-11.2965
▁ऋषभ	-11.2965
▁एंबुलेंस	-11.2965
▁लहसुन	-11.2965
▁सर्टिफिकेट	-11.2965
▁२०१	-11.2965
▁कैरियर	-11.2965
▁आईआईटी	-11.2965
▁कॉमेडी	-11.2965
▁झड़प	-11.2965
▁चिंतन	-11.2965
▁विश्वकप	-11.2965
▁पहुच	-11.2965
▁आंधी	-11.2966
▁पथराव	-11.2966
▁सरसों	-11.2967
▁गुरूवार	-11.2968
चिंत	-11.297
▁आफिस	-11.297
▁आइये	-11.2971
▁डाइट	-11.2974
▁असीम	-11.2986
एँगे	-11.3002
▁मिथुन	-11.3042
▁शैक्षिक	-11.3042
▁उत्तेज	-11.3042
▁सिगरेट	-11.3042
▁सूक्ष्म	-11.3042
▁रवैया	-11.3042
▁मित्तल	-11.3042
▁2018-19	-11.3042
▁टाउन	-11.3042
▁निवेदन	-11.3042
▁ट्रांसपोर्ट	-11.3042
▁रविशंकर	-11.3043
ood	-11.3043
▁अनूप	-11.3047
▁उपक्रम	-11.3048
▁द्वि	-11.3048
विज्ञान	-11.3058
िफिकेशन	-11.3118
▁एनकाउंटर	-11.3119
▁मुजफ्फरनगर	-11.3119
▁विनिमय	-11.3119
▁मतगणना	-11.3119
▁ड्रोन	-11.3119
▁नालागढ़	-11.3119
ection	-11.3121
▁फिसल	-11.3128
उत्तर	-11.3135
▁आलोचक	-11.3197
▁ट्रिब्यून	-11.3197
▁अंकुश	-11.3197
▁आवाजाही	-11.3197
▁अलगाववाद	-11.3197
संतुलित	-11.3198
▁रचनात्मक	-11.3198
ठ्ठ	-11.3198
▁आपत्तिजनक	-11.3198
▁इस्लामाबाद	-11.3203
▁ड्रॉ	-11.3203
▁अकस	-11.3222
▁इलेक्	-11.3237
ोलॉजी	-11.3266
▁you	-11.3271
▁पदोन्नति	-11.3276
▁राइफल	-11.3276
▁मन्दिर	-11.3276
▁स्कूटर	-11.3276
▁जॉर्ज	-11.3276
▁प्रोफाइल	-11.3276
▁घंटा	-11.3276
▁दर्दनाक	-11.3276
▁गोदाम	-11.3276
▁ठेका	-11.3276
▁गूंज	-11.3276
▁माननीय	-11.3277
▁Off	-11.3277
रिक्शा	-11.3279
प्रेम	-11.3301
▁लाभदाय	-11.3326
▁Next	-11.3355
▁उत्सुक	-11.3355
▁क्‍योंकि	-11.3355
▁धूमधाम	-11.3355
▁निश्चय	-11.3355
▁अन्तर्गत	-11.3355
▁फाइबर	-11.3355
▁रोहिंग्या	-11.3355
▁शब्दकोश	-11.3355
▁हिदायत	-11.3355
▁तड़के	-11.3355
▁सम्राट	-11.3355
▁जर्नल	-11.3356
लड़कियों	-11.3366
▁प्रभार	-11.3372
बाहुबली	-11.3435
▁बेंगलुरू	-11.3435
▁महबूबा	-11.3435
▁याबाबत	-11.3435
▁सीबीएसई	-11.3435
▁हानिकारक	-11.3435
▁बच्चियों	-11.3435
▁रिमांड	-11.3435
▁गर्दन	-11.3435
▁बृज	-11.3435
▁आनन्द	-11.3436
▁विवेकानंद	-11.3436
▁पद्धति	-11.3436
▁स्टैंडर्ड	-11.3438
▁भुगतन	-11.3439
▁केमिकल	-11.344
▁न्‍यूज	-11.344
▁डायरेक्ट	-11.3516
▁अस्थायी	-11.3516
▁उपमुख्यमंत्र	-11.3516
▁एचडीएफसी	-11.3516
▁म्यांमार	-11.3516
▁अरुणाचल	-11.3516
▁अहंकार	-11.3516
▁उत्तरप्रदेश	-11.3516
▁एडमिशन	-11.3516
▁विकलांग	-11.3516
▁करिश्मा	-11.3516
▁संविदा	-11.3516
▁तिब्बत	-11.3516
▁विधवा	-11.3516
▁इलाका	-11.3516
▁यशवंत	-11.3517
▁दबोच	-11.3517
▁पलवल	-11.3523
ांमध्ये	-11.3567
चढ़ाव	-11.3595
▁IPL	-11.3597
▁आशुतोष	-11.3597
▁इजरायल	-11.3597
▁जनप्रतिनिधि	-11.3597
▁नैशनल	-11.3597
▁स्वप्न	-11.3597
▁मणिपुर	-11.3597
▁हॉस्टल	-11.3597
▁पेरिस	-11.3597
▁खनिज	-11.3597
▁अड्डा	-11.3597
▁बरेली	-11.3598
▁ढील	-11.3598
▁महिमा	-11.3602
युक्‍त	-11.361
ावधि	-11.3616
▁झालेल्या	-11.3633
▁कतार	-11.3635
वेळी	-11.3644
▁एपिसोड	-11.3679
▁खिड़की	-11.3679
▁पुख्ता	-11.3679
▁मुस्कुरा	-11.3679
▁व्हाट्सएप	-11.3679
▁सीतारमण	-11.3679
▁हालाँकि	-11.3679
▁article	-11.3679
▁चिह्न	-11.3679
▁प्रोडक्शन	-11.3679
▁तबादला	-11.3679
▁गरिमा	-11.3679
▁उपेक्षा	-11.3679
▁तरक्की	-11.3679
▁विदाई	-11.3679
▁केदारनाथ	-11.368
▁धर्मनिरपेक्ष	-11.368
▁आइडिया	-11.368
▁स्टीव	-11.3688
िन्द्र	-11.3724
▁Google	-11.3762
▁एंड्रॉयड	-11.3762
▁द्विवेदी	-11.3762
▁रोमांटिक	-11.3762
▁सब्जियों	-11.3762
▁छावनी	-11.3762
▁शिकस्त	-11.3762
▁तोहफा	-11.3762
▁अदरक	-11.3762
▁घातक	-11.3762
▁ध्वनि	-11.3763
क्राफ्ट	-11.3763
▁पठान	-11.3763
▁रविंद्र	-11.3763
▁स्मरण	-11.3764
▁जुबान	-11.3767
क्‍टर	-11.3773
▁विंडो	-11.3786
▁क्वालिटी	-11.3845
▁प्वाइंट	-11.3845
▁लोकार्पण	-11.3845
▁वामपंथी	-11.3845
▁प्रशिक्षित	-11.3845
▁भयानक	-11.3845
▁मुनाफे	-11.3845
▁लीजिये	-11.3845
▁अफेयर	-11.3845
▁इरादा	-11.3845
▁ख़राब	-11.3845
▁उत्प	-11.3846
▁अरूण	-11.3846
▁राघव	-11.3846
▁उद्यान	-11.3847
▁मर्डर	-11.3847
बहुत	-11.386
▁उपप्रधान	-11.3914
▁अख़बार	-11.3929
▁मूर्ख	-11.3929
विभाजित	-11.3929
▁रोकथाम	-11.3929
▁अमेठी	-11.3929
▁प्रभात	-11.393
▁कर्नल	-11.393
▁असलेल्या	-11.3933
▁टांग	-11.394
900	-11.3985
revious	-11.4014
▁कांफ्रेंस	-11.4014
▁ठिकाणी	-11.4014
▁दरम्यान	-11.4014
▁स्पेक्ट्रम	-11.4014
▁हिंदुत्व	-11.4014
▁चौराहे	-11.4014
▁डिफेंस	-11.4014
▁संगठित	-11.4014
▁आश्वस्त	-11.4014
▁पुजारी	-11.4014
▁निवारण	-11.4014
▁नवजात	-11.4014
▁कचरा	-11.4015
▁फुटबाल	-11.4015
▁अनूठ	-11.4016
▁सुरेन्द्र	-11.4019
▁चालीस	-11.4025
#	-11.403
पश्चिम	-11.403
दिल्ली	-11.4033
बिमारिय	-11.4046
ainik	-11.4099
▁ठिकानों	-11.4099
▁सशस्त्र	-11.4099
▁सोसाइटी	-11.4099
स्खलन	-11.4099
▁दशहरा	-11.4099
▁दुर्लभ	-11.4099
▁इलाक़	-11.4099
▁इकबाल	-11.4099
▁लेटेस्ट	-11.4099
▁कारखाने	-11.41
▁शोएब	-11.41
▁भरपाई	-11.41
▁उजाला	-11.41
▁क्रांतिकारी	-11.4102
▁राष्ट्रमंडल	-11.4103
घु	-11.4131
▁एडवोकेट	-11.4186
▁न्यायपालिका	-11.4186
▁पोर्टफोलियो	-11.4186
▁मशक्कत	-11.4186
▁राठौर	-11.4186
▁आरजेडी	-11.4186
▁मार्जिन	-11.4186
▁आरटीआई	-11.4186
▁व्याप्त	-11.4186
▁थाईलैंड	-11.4186
▁गन्ने	-11.4186
▁खिसक	-11.4187
▁सिनेमाघर	-11.4188
▁खौफ	-11.4188
▁कहानियां	-11.4189
▁खेर	-11.4213
▁ठेके	-11.4266
▁Bhaskar	-11.4273
▁इंतज़ार	-11.4273
▁गर्लफ्रेंड	-11.4273
▁गुडग़ांव	-11.4273
▁एक्सपर्ट	-11.4273
▁मसौद	-11.4273
▁शस्त्र	-11.4273
▁प्रगतिशील	-11.4274
समोर	-11.4277
▁घेण्या	-11.4287
▁उमड़	-11.429
साप्ताहिक	-11.436
▁एप्लीकेशन	-11.436
▁ज़िन्दगी	-11.436
▁डायबिटीज	-11.436
▁डिस्काउंट	-11.436
▁त्वरित	-11.436
▁पारदर्शिता	-11.436
▁प्लेटफार्म	-11.436
▁हांगकांग	-11.436
▁आख़िर	-11.436
▁चार्जशीट	-11.436
▁एकदिवसीय	-11.436
▁शॉपिंग	-11.436
▁पुजारा	-11.436
▁बैलेंस	-11.436
▁सवर्ण	-11.436
▁वाड्रा	-11.436
▁बंबई	-11.436
▁भांति	-11.436
▁भाटिया	-11.4361
परंपरागत	-11.4361
▁गतिविधियां	-11.4361
▁संग्रहालय	-11.4362
▁माधव	-11.4362
▁पक्की	-11.4364
▁एंकर	-11.4366
▁अजहर	-11.4372
राष्‍ट्रीय	-11.4449
▁पुनर्विचार	-11.4449
▁मुहूर्त	-11.4449
▁विज्ञप्ति	-11.4449
▁ख़ुशी	-11.4449
▁सम्पर्क	-11.4449
▁टिप्स	-11.4449
▁रोबोट	-11.4449
▁सितारों	-11.4449
▁फ्रेंच	-11.4449
▁रेणु	-11.4449
▁भैंस	-11.4449
▁कार्यभार	-11.4449
▁जीवनसाथी	-11.4449
▁इमेज	-11.4449
▁गुड़गांव	-11.4449
▁ऊंचे	-11.445
▁गलियार	-11.4452
कप्तान	-11.4469
▁लडक	-11.449
▁बच्चो	-11.4521
▁आंगनबाड़ी	-11.4538
▁इंश्योरेंस	-11.4538
▁नजरअंदाज	-11.4538
▁परिदृश्य	-11.4538
▁मज़बूत	-11.4538
▁रखरखाव	-11.4538
▁आरोग्य	-11.4538
▁चुपचाप	-11.4538
ट्रिन्यू	-11.4538
▁सर्किट	-11.4538
▁रामायण	-11.4538
▁लद्दाख	-11.4538
▁स्‍थान	-11.4538
▁सुसाइड	-11.4538
▁साध्वी	-11.4538
▁जैविक	-11.4538
▁एनर्जी	-11.4538
▁मंथन	-11.4538
▁पुतला	-11.4538
▁उंगली	-11.4538
▁जेम्स	-11.4539
▁ग़रीब	-11.4539
▁सम्मिल	-11.454
▁किराये	-11.454
▁use	-11.4619
एजेंसियां	-11.4628
▁जालंधर	-11.4628
▁सक्सेना	-11.4628
▁सौभाग्य	-11.4628
▁पीयूष	-11.4628
▁सृष्टि	-11.4628
▁बंटवारे	-11.4628
▁अंधेरे	-11.4628
▁टक्के	-11.4628
▁बंगले	-11.4628
▁देसाई	-11.4629
▁बोनस	-11.4629
▁इंसाफ	-11.4632
▁हँस	-11.4632
माजरा	-11.4658
▁छोड	-11.4672
नहीं	-11.4677
▁Times	-11.4719
▁उपराष्ट्रपति	-11.4719
▁निष्कर्ष	-11.4719
▁प्रोफेशनल	-11.4719
▁रिलेशनशिप	-11.4719
▁वसुंधरा	-11.4719
▁देशभक्ति	-11.4719
▁समुचित	-11.4719
▁2017-18	-11.4719
▁तुझे	-11.4719
▁हरभजन	-11.4719
▁एशियन	-11.4719
▁नौकरियां	-11.4719
▁कुश्ती	-11.4719
▁आसाराम	-11.4719
▁मसूद	-11.4719
▁दामाद	-11.472
▁कत्ल	-11.472
▁निवडणुकी	-11.4811
▁क्रियान्वयन	-11.4811
▁पार्थिव	-11.4811
▁पीरियड	-11.4811
▁मुद्रास्फीति	-11.4811
▁मुस्कान	-11.4811
▁व्यावहारिक	-11.4811
▁ऋतु	-11.4811
▁द्रविड़	-11.4811
▁मर्यादा	-11.4811
▁परिक्रमा	-11.4811
▁प्रकल्प	-11.4811
▁तंवर	-11.4811
▁वकालत	-11.4811
▁डेयरी	-11.4811
▁फेमस	-11.4811
▁मसाला	-11.4811
▁मनमानी	-11.4811
▁टेलीकॉम	-11.4812
▁उकसा	-11.4812
▁गोरख	-11.4817
▁सीआईए	-11.4824
प्रयाग	-11.4828
सामने	-11.4837
▁मुआवज	-11.4865
▁पौराणिक	-11.4903
▁फ्लिपकार्ट	-11.4903
▁बखूबी	-11.4903
▁बीकानेर	-11.4903
▁विश्राम	-11.4903
▁लश्कर	-11.4903
▁दुसरे	-11.4904
▁छलांग	-11.4904
▁ब्यूटी	-11.4904
▁सनातन	-11.4904
▁संशय	-11.4905
▁दाऊद	-11.4906
▁सचेत	-11.4906
▁नस्ल	-11.4909
छोटी	-11.4928
ाउड	-11.4932
▁ढि	-11.4949
▁उम्‍मीद	-11.4997
▁कुरैशी	-11.4997
▁चव्हाण	-11.4997
▁फैसलों	-11.4997
▁मुक्केबाज	-11.4997
▁प्रकोष्ठ	-11.4997
▁वर्चस्व	-11.4997
▁स्थानांतरित	-11.4997
▁एनजीओ	-11.4997
▁बंदरगाह	-11.4997
▁रोमांस	-11.4997
▁थरूर	-11.4997
▁सनसनी	-11.4997
▁असताना	-11.4997
▁कयास	-11.4998
▁सोरेन	-11.4999
form	-11.5023
यंत्र	-11.5029
▁सडक	-11.5032
ture	-11.5064
▁अभिनंदन	-11.5091
▁इरफान	-11.5091
▁फ़ैसला	-11.5091
▁मोबाईल	-11.5091
▁रायबरेली	-11.5091
▁विपणन	-11.5091
▁सिसोदिया	-11.5091
▁ध्वस्त	-11.5091
▁स्त्रियों	-11.5091
▁गणपति	-11.5091
▁बकवास	-11.5091
▁बेटियां	-11.5091
▁सगाई	-11.5092
▁रस्त्या	-11.5092
अंतराल	-11.5105
▁सराहन	-11.5148
>>	-11.5156
▁एक्सरसाइज	-11.5186
▁दिवंगत	-11.5186
▁प्रिंसिपल	-11.5186
▁नौकरशाह	-11.5186
▁प्रासंगिक	-11.5186
▁गोगोई	-11.5186
▁पप्पू	-11.5186
▁इरादे	-11.5186
▁गुमराह	-11.5186
▁समकक्ष	-11.5187
▁धमाका	-11.5187
▁गुज़र	-11.5189
भयंकर	-11.5201
‘‘	-11.5259
▁शौच	-11.5282
डिय़ा	-11.5283
▁जयललिता	-11.5283
▁पवेलियन	-11.5283
▁बर्खास्त	-11.5283
▁गुरुद्वारा	-11.5283
▁जायसवाल	-11.5283
▁प्रश्‍न	-11.5283
▁विरूद्ध	-11.5283
▁पैटर्न	-11.5283
▁सुपरहिट	-11.5283
▁रेसिपी	-11.5283
▁प्रतीक्षा	-11.5283
▁शिक्षित	-11.5283
▁तख्त	-11.5283
▁मोहल्ले	-11.5285
▁झुलस	-11.5286
▁वाक्य	-11.53
▁गतिविधि	-11.5337
▁आंशिक	-11.538
▁कॉरपोरेट	-11.538
▁जनसंपर्क	-11.538
▁भंसाली	-11.538
▁वगैरह	-11.538
▁नॉर्थ	-11.538
▁साक्ष्य	-11.538
▁सिक्के	-11.538
▁पत्ते	-11.5381
▁भावनात्मक	-11.5381
▁सुहाग	-11.5382
▁होशियार	-11.5383
▁निवड	-11.5383
गिर्द	-11.5409
साधारण	-11.541
राउंड	-11.5411
▁with	-11.5478
▁अफ्रीकी	-11.5478
▁अविश्वास	-11.5478
▁मॉनसून	-11.5478
▁कैलेंडर	-11.5478
▁मधुमेह	-11.5478
▁वैचारिक	-11.5478
▁एसएमएस	-11.5478
▁जेडीयू	-11.5478
▁ग्रोथ	-11.5478
▁एडमिट	-11.5478
▁अध्याय	-11.5478
▁देओल	-11.5479
वुड	-11.5556
▁इंडियंस	-11.5577
▁गम्भीर	-11.5577
▁तोड़फोड़	-11.5577
▁फाइनेंस	-11.5577
▁मल्होत्रा	-11.5577
▁रजनीकांत	-11.5577
▁पुरोहित	-11.5577
▁पार्वती	-11.5577
▁हंगामे	-11.5577
▁शिवसेने	-11.5577
▁उपासना	-11.5577
▁मयंक	-11.5577
▁लुढ़क	-11.5577
▁तबीयत	-11.5577
▁आयरन	-11.5579
ावधान	-11.5666
▁अंपायर	-11.5677
▁आंबेडकर	-11.5677
▁ऋतिक	-11.5677
▁परमात्मा	-11.5677
▁वृद्घि	-11.5677
▁स्वाभिमान	-11.5677
▁बर्थडे	-11.5677
▁माधुरी	-11.5677
▁बॉर्डर	-11.5677
▁मानहानि	-11.5677
▁दौलत	-11.5677
▁नोबेल	-11.5677
▁चेहरों	-11.5677
▁पितृ	-11.5677
▁अकेली	-11.5677
▁पावसा	-11.5677
आईएएनएस	-11.5677
▁कृत्य	-11.5678
लोनियों	-11.57
▁बँक	-11.57
▁आवारा	-11.5755
िष्णु	-11.5759
सोलर	-11.5771
▁कोशिकाओं	-11.5778
▁देशद्रोह	-11.5778
▁पाण्डेय	-11.5778
▁रवैये	-11.5778
▁थप्पड़	-11.5778
▁व्‍यक्ति	-11.5778
▁स्टूडियो	-11.5778
▁स्तंभ	-11.5778
▁स्टोक्स	-11.5778
▁झज्जर	-11.5778
▁वैभव	-11.5778
▁सितारे	-11.5778
▁उखाड़	-11.5778
▁एसडीओ	-11.5778
ेश्‍वर	-11.5778
▁सुराग	-11.5779
▁क़रीब	-11.5779
▁आशय	-11.578
ाउट	-11.582
ऑक्सीजन	-11.588
▁अथॉरिटी	-11.588
▁उत्तीर्ण	-11.588
▁एंटरटेनमेंट	-11.588
▁कंटेस्टेंट	-11.588
▁जाह्नवी	-11.588
▁दुष्यंत	-11.588
▁एजेंडा	-11.588
▁खुदकुशी	-11.588
▁समर्पण	-11.588
▁एग्जि	-11.588
▁कोल्हापूर	-11.588
▁सिरमौर	-11.588
▁ग्रोवर	-11.588
▁लोकायुक्त	-11.588
▁मिशेल	-11.588
▁आइटम	-11.588
▁पठानकोट	-11.588
▁कारावास	-11.5881
▁तक्रार	-11.5887
फोर्ड	-11.5918
विकास	-11.5923
▁Blog	-11.5983
▁एयरलाइंस	-11.5983
▁कॉरपोरेशन	-11.5983
▁खिलाडि़यों	-11.5983
▁नमस्कार	-11.5983
▁प्रताड़ित	-11.5983
▁रुग्ण	-11.5983
▁अविनाश	-11.5983
▁सचमुच	-11.5983
▁सनराइज	-11.5983
▁गणमान्य	-11.5983
▁तानाशाह	-11.5983
▁अधिवेशन	-11.5983
▁भूपेश	-11.5983
▁समाजसेवी	-11.5983
▁नोकिया	-11.5983
▁टंडन	-11.5983
▁आईपीसी	-11.5983
▁स्थाई	-11.5983
▁महर्षि	-11.5983
▁बिगाड़	-11.5986
▁सर्जन	-11.5986
हमारे	-11.6019
▁डेवलपमेंट	-11.6087
▁बीएसएनएल	-11.6087
▁रासायनिक	-11.6087
▁वोडाफोन	-11.6087
▁सिक्किम	-11.6087
▁ठुकरा	-11.6087
▁अप्लाई	-11.6087
▁एसटीएफ	-11.6087
▁पीजीआई	-11.6087
▁कोषाध्यक्ष	-11.6087
▁बर्ताव	-11.6087
▁पुन्हा	-11.6087
तन्त्र	-11.6087
▁अभिनव	-11.6087
▁अनुपस्थित	-11.6088
▁नामजद	-11.6088
▁वर्दी	-11.6088
▁संभल	-11.6089
▁सध्या	-11.609
▁हाइड्रो	-11.6092
भतीजे	-11.6093
टाइम	-11.6126
▁भागीदार	-11.6128
अधिक	-11.6173
▁असंभव	-11.6192
▁आराधना	-11.6192
▁इकोनॉम	-11.6192
▁मुमकिन	-11.6192
▁यद्यपि	-11.6192
▁यूनाइटेड	-11.6192
▁श्रेणियों	-11.6192
▁सहारनपुर	-11.6192
▁सुरजेवाला	-11.6192
▁परिपक्व	-11.6192
▁राजकोष	-11.6192
▁इंचार्ज	-11.6192
▁स्लाइड	-11.6192
▁गुन्हा	-11.6192
▁एंजेल	-11.6192
▁जिंदल	-11.6192
▁वापिस	-11.6192
▁चाइना	-11.6193
▁अनुयाय	-11.6193
▁डेमोक्रेट	-11.6299
▁अध्यादेश	-11.6299
▁एबीवीपी	-11.6299
▁ऑफिशियल	-11.6299
▁प्रोड्यूसर	-11.6299
▁शृंखला	-11.6299
▁फेडरर	-11.6299
▁हाफिज	-11.6299
वांछित	-11.6299
▁फोटोग्राफी	-11.6299
▁सिब्बल	-11.6299
▁उत्तराखण्ड	-11.6299
▁इज्जत	-11.6299
▁वरीयता	-11.6299
▁क्रिसमस	-11.6299
▁vs	-11.6299
▁एनआईए	-11.6299
शब्द	-11.6337
प्रधानमंत्री	-11.6357
▁विक्रेता	-11.6369
escription	-11.6406
▁खुशखबरी	-11.6406
▁डिप्लोमा	-11.6406
▁सब्जियां	-11.6406
▁पटाखे	-11.6406
▁ठाणे	-11.6406
▁परिधान	-11.6406
▁ठिकाने	-11.6406
▁एकतरफा	-11.6406
▁उल्टा	-11.6406
▁पुतिन	-11.6406
▁आबकारी	-11.6406
▁प्रतियोगी	-11.6406
▁महिन्या	-11.6407
▁डकैत	-11.6407
▁आॅफ	-11.6408
▁ग्यारह	-11.6515
▁चैम्पियनशिप	-11.6515
▁जगाधरी	-11.6515
▁जानबूझकर	-11.6515
▁टारगेट	-11.6515
▁फ़ैसले	-11.6515
▁महाप्रबंधक	-11.6515
▁शहादत	-11.6515
▁सद्भाव	-11.6515
▁दबदबा	-11.6515
▁अलविदा	-11.6515
▁त्रिवेदी	-11.6515
▁परिश्रम	-11.6515
▁कैलोरी	-11.6515
▁निराकरण	-11.6515
▁कंटेंट	-11.6515
▁गुरमीत	-11.6515
▁मार्शल	-11.6515
▁सोनाक्षी	-11.6515
▁एडवांस	-11.6515
▁ढुल	-11.6515
▁दीजिये	-11.6515
▁शातिर	-11.6515
▁माकपा	-11.6515
▁टास्क	-11.6515
▁लोहिया	-11.6515
▁खामोश	-11.6516
▁परिसंपत्ति	-11.6625
▁त्रुटि	-11.6625
▁मुक़ाबल	-11.6625
▁विसर्जन	-11.6625
▁सस्पेंड	-11.6625
▁पीडब्ल्यूडी	-11.6625
▁हज़रत	-11.6625
▁गाड़ियां	-11.6625
▁वार्नर	-11.6625
▁दक्षता	-11.6625
▁उभार	-11.663
▁एनपीए	-11.6648
उन्होंने	-11.6667
सुविधा	-11.6667
दिवस	-11.6669
▁तुम्हे	-11.6719
▁इकलौत	-11.6736
▁गिरफ़्तार	-11.6736
▁डिज़ाइन	-11.6736
▁पॉपुलर	-11.6736
▁प्राध्यापक	-11.6736
▁प्रैक्टिस	-11.6736
▁संक्रांति	-11.6736
▁स्टार्टअप	-11.6736
▁विमोचन	-11.6736
▁व्यवस्थित	-11.6736
▁2016-17	-11.6736
▁पंद्रह	-11.6736
▁अपितु	-11.6736
▁मुख्‍यमंत्र	-11.6736
▁भागलपुर	-11.6736
▁मत्स्य	-11.6736
▁नायब	-11.6737
▁हार्मोन	-11.6848
▁अमावस्या	-11.6848
▁कनेक्टिविटी	-11.6848
▁धरोहर	-11.6848
▁नैनीताल	-11.6848
▁सर्वसम्मति	-11.6848
▁स्क्रिप्ट	-11.6848
▁आत्मघाती	-11.6848
▁डिवीजन	-11.6848
▁निमंत्रण	-11.6848
▁अशुभ	-11.6848
▁थोडा	-11.6848
▁इंगलैंड	-11.6848
▁जेडीएस	-11.6848
▁आयरलैंड	-11.6848
▁इशारे	-11.6848
▁सिल्वर	-11.6848
▁चुटकी	-11.6848
▁धंधा	-11.6848
▁फौरन	-11.6848
▁नाजुक	-11.6848
▁प्रचंड	-11.6848
▁दोगुना	-11.6849
▁मोनिका	-11.6849
▁दादरी	-11.6849
▁व्यंजन	-11.6849
▁राक्षस	-11.685
▁अपेक्ष	-11.6954
▁शुभकामना	-11.6958
्क्षसह	-11.6962
▁Online	-11.6962
▁अस्वीकार	-11.6962
▁घोटालों	-11.6962
▁चॉकलेट	-11.6962
▁निःशुल्क	-11.6962
▁पुरस्कृत	-11.6962
▁सुब्रमण्य	-11.6962
▁रणदीप	-11.6962
▁रवीश	-11.6962
▁ताबड़	-11.6962
▁चट्टान	-11.6962
▁प्रकोप	-11.6962
▁सुकून	-11.6962
▁कार्टून	-11.6962
▁पिस्टल	-11.6962
▁जिहाद	-11.6962
▁पत्तों	-11.6962
▁सरोकार	-11.6964
▁पतंग	-11.6966
रिवाज	-11.7001
कल्याण	-11.701
ञ	-11.7063
▁अफगान	-11.7077
▁समायोज	-11.7077
▁ड्रिंक	-11.7077
▁विस्थापित	-11.7077
▁अप्रत्यक्ष	-11.7077
▁अ‍ॅ	-11.7077
▁आवागमन	-11.7077
▁नुस्ख	-11.7077
▁विवादास्पद	-11.7077
▁षड्यंत्र	-11.7077
▁सर्वप्रथम	-11.7077
▁सशक्तिकरण	-11.7077
▁पर्रिकर	-11.7077
▁भविष्यवाणी	-11.7077
▁जागरुक	-11.7077
▁ध्‍यान	-11.7077
▁पाटीदार	-11.7077
▁मलेरिया	-11.7077
▁मुबारक	-11.7077
▁सौगात	-11.7077
▁रश्मि	-11.7152
▁अनिश्चितता	-11.7193
▁अम्बेडकर	-11.7193
▁कूटनीति	-11.7193
▁कृषक	-11.7193
▁कॉरिडोर	-11.7193
▁जगन्नाथ	-11.7193
▁ट्रांसफार्मर	-11.7193
▁धूम्रपान	-11.7193
▁निरोधक	-11.7193
▁निस्तारण	-11.7193
▁बाथरूम	-11.7193
▁राजनयिक	-11.7193
▁शिकंजा	-11.7193
▁संलिप्त	-11.7193
औ	-12.1519
»	-13.4199
